. 128211
? 87020
a 86815
the 60023
is 49343
in 45254
what 37146
man 22001
who 19676
ein 19565
on 19198
wer 18450
, 17606
of 16080
are 15831
and 15116
einem 14157
mann 13439
auf 12886
der 12472
und 12029
with 11828
woman 11180
die 10543
eine 10405
doing 10231
mit 10157
an 9582
people 8366
while 8338
two 7929
to 7539
frau 7509
at 7355
einer 7021
wearing 6989
hat 6364
color 5784
wel@@ 5734
che 5695
im 5552
dem 5324
shirt 5223
das 5205
white 5029
men 4946
playing 4888
girl 4878
sitting 4846
blue 4752
boy 4742
black 4702
young 4660
dog 4588
den 4537
red 4495
farbe 4290
standing 4282
was 4237
zwei 4046
einen 3978
walking 3978
his 3715
mädchen 3641
sich 3554
s 3517
holding 3494
street 3444
person 3443
down 3331
junge 3291
ist 3203
steht 3168
&apos; 3153
männer 2996
sitzt 2916
menschen 2887
front 2886
group 2883
spielt 2779
von 2772
zu 2763
hund 2754
vor 2727
ball 2722
women 2714
des 2619
does 2580
water 2546
looking 2545
her 2465
child 2442
kind 2397
hält 2346
green 2328
for 2274
by 2272
up 2255
hemd 2125
three 2118
children 2090
am 2074
straße 2067
trägt 2044
yellow 2029
outside 2011
through 2004
their 1943
do 1918
one 1913
little 1890
orange 1849
brown 1826
riding 1821
frauen 1802
geht 1784
large 1781
into 1745
running 1724
as 1722
from 1600
where 1588
über 1565
out 1531
kinder 1497
jumping 1492
colors 1489
macht 1480
fährt 1473
building 1467
während 1465
next 1463
gruppe 1461
farben 1440
small 1440
over 1419
hand 1415
aus 1396
jacket 1391
blau 1369
park 1361
near 1330
around 1324
springt 1323
haben 1320
durch 1319
pink 1318
field 1282
beach 1278
baby 1272
rot 1272
personen 1268
dressed 1267
other 1252
wasser 1249
um 1241
dogs 1237
sidewalk 1229
neben 1220
table 1213
schaut 1204
girls 1200
bike 1177
player 1168
crowd 1141
-@@ 1136
eines 1127
drei 1126
grass 1121
some 1114
working 1082
snow 1081
talking 1080
blauen 1077
air 1070
jungen 1070
schwarz 1067
weißen 1063
another 1059
that 1049
city 1037
lady 1036
roten 1024
wall 1023
bei 1018
off 1017
spielen 1014
top 1014
entlang 1013
boys 1008
läuft 1003
behind 988
stand 983
mannes 964
stehen 962
dress 958
camera 949
sitzen 946
food 944
taking 941
es 932
guitar 928
weiß 925
soccer 920
shorts 915
carrying 914
smiling 907
something 898
asian 894
er 893
band 887
pool 882
car 878
leute 873
together 870
game 869
hair 869
t-shirt 867
&quot; 865
picture 852
along 849
sind 843
jacke 836
being 833
older 831
rock 826
wird 824
für 819
performing 818
four 811
sand 808
be@@ 807
bench 802
fahrrad 802
couple 799
stands 799
gray 796
etwas 794
background 792
kleidung 788
several 788
ge@@ 786
stage 784
watching 779
jeans 775
kleines 775
a@@ 755
many 750
schwarzen 748
großen 747
hunde 745
road 740
using 738
luft 734
strand 716
bicycle 715
tisch 715
hut 710
ing 709
male 709
guy 708
restaurant 708
kleiner 702
skateboard 702
gebäude 699
race 698
side 695
type 690
old 686
play 685
it 683
tree 680
clothing 668
en@@ 668
gehen 661
eating 660
pants 659
boat 657
dirt 652
kids 648
sits 646
grün 639
have 637
seinem 633
basketball 631
has 630
each 626
football 622
face 621
oberteil 620
posing 619
reading 616
baseball 615
female 613
glasses 606
nähe 606
area 600
tragen 600
mehrere 595
across 594
nach 594
essen 593
re@@ 593
climbing 591
tennis 591
purple 587
gelb 586
grünen 584
e@@ 583
hands 583
hintergrund 583
ed 582
s@@ 582
e 580
head 580
hinter 579
paar 579
kamera 578
day 577
room 577
looks 576
players 573
draußen 572
blond 571
sign 570
uniform 569
boden 566
waiting 566
gras 565
horse 563
t 563
arbeitet 562
bus 552
ers 552
workers 552
ground 550
t@@ 550
back 547
store 546
trying 544
dame 543
er@@ 542
anderen 541
coat 540
dancing 537
i@@ 537
an@@ 535
walk 535
schnee 534
its 532
feld 531
mouth 530
outfit 530
kleid 528
or 526
toy 525
freien 524
hoch 524
having 523
spieler 521
gitarre 520
beim 515
he 514
kleinen 513
suit 513
under 513
in@@ 512
spricht 512
construction 509
bank 507
di@@ 506
d@@ 504
him 503
getting 501
team 501
mountain 500
microphone 499
rosa 499
ten 499
g@@ 498
during 490
be 487
walks 487
bühne 486
trick 485
ocean 484
train 484
singing 481
striped 479
kleine 478
versucht 476
sit 469
rennt 468
junger 467
sie 466
look 461
vorbei 460
gelben 459
wie 459
o@@ 457
m@@ 456
te 456
ver@@ 456
swimming 454
window 454
unter 453
c@@ 451
jumps 451
them 451
wor@@ 451
foto 446
hinunter 446
k@@ 443
they 443
how 442
&apos;s 441
y 441
dark 440
long 440
zusammen 439
andere 437
elderly 436
making 436
about 435
weg 435
helmet 429
plays 429
shirts 429
against 428
vier 428
lächelt 424
menschenmenge 424
bag 422
middle 421
sunglasses 421
chair 419
ice 418
wooden 418
b@@ 413
enjoying 411
liegt 411
truck 411
en 410
führt 409
de@@ 408
wand 408
d 407
f@@ 407
bürgersteig 406
outdoor 406
ter 405
work 405
past 404
preparing 403
holds 401
rennen 399
watch 398
schwarzer 397
floor 394
cart 393
posiert 393
un@@ 393
jump 392
laying 391
ihre 390
ins 388
bar 387
ch@@ 387
p@@ 383
line 382
als 380
braun 379
colorful 378
fence 378
book 374
hill 373
frisbee 370
kopf 370
arm 367
liest 367
market 367
light 366
arbeiter 364
motorcycle 363
sein 363
five 361
ihren 361
ra@@ 361
boot 360
there 360
inside 358
herum 357
path 356
worker 356
zeigt 356
al@@ 355
clothes 355
hose 354
painting 354
seine 354
statue 354
kitchen 353
stadt 352
high 351
li@@ 351
ride 351
busy 350
seinen 350
umbrella 350
this 349
night 348
sch@@ 348
graffiti 347
metal 347
klettert 346
u@@ 346
board 342
swing 341
auto 340
big 340
ready 340
fahren 339
cellphone 338
hats 338
isst 338
la@@ 338
tan 338
very 337
someone 336
trees 336
paper 335
singt 335
track 335
adults 334
grassy 333
viele 333
brille 331
älterer 331
shop 330
covered 329
kid 329
n@@ 329
drinking 328
gehweg 328
body 325
hosen 325
stick 325
cap 324
po@@ 324
pferd 323
g 322
instrument 321
volleyball 320
befindet 319
going 319
bild 318
gen 318
surfer 318
hold 316
runs 316
sweater 316
bereitet 314
ds 314
ri@@ 314
große 313
l 313
river 313
ro@@ 313
con@@ 312
de 309
event 308
lake 308
parade 308
snowboarder 308
ting 308
w@@ 308
brick 307
ihr 307
shopping 307
le@@ 306
se 306
st@@ 306
ti@@ 306
towards 306
wartet 306
bright 305
leaning 305
all 304
fußball 304
mantel 304
object 303
v@@ 303
wave 303
computer 301
hockey 301
machen 301
o 301
sehen 301
ge 300
she 300
sleeping 300
i 299
family 298
hand@@ 298
k 298
braunen 296
do@@ 296
lo@@ 296
watches 296
house 295
toddler 294
z@@ 294
party 293
si@@ 293
subway 293
p 292
tank 292
bridge 291
catch 291
laufen 291
music 291
ca@@ 290
weißer 290
dabei 289
guys 289
hanging 289
ma@@ 289
se@@ 289
sieht 289
blickt 287
helm 287
pole 287
stone 287
fire 286
wirft 286
racing 285
schild 285
photo 284
mikrofon 283
piece 283
ts 283
uniforms 283
police 282
gesicht 281
spiel 280
tag 280
fishing 279
outdoors 278
halten 277
mädchens 277
phone 277
vest 277
wagen 277
to@@ 276
open 275
h@@ 274
cowboy 272
felsen 272
me@@ 272
pushing 272
st 272
darauf 271
full 271
gathered 271
hard 271
selling 271
auf@@ 270
flowers 270
schauen 270
raum 269
set 269
dance 268
others 268
snowy 268
ba@@ 267
onto 267
beside 266
colored 266
couch 266
zum 266
above 264
co@@ 264
crowded 264
ältere 264
art 263
ding 263
throwing 263
tritt 263
baum 262
putting 262
ihrem 261
wo@@ 260
machine 258
n 257
rope 257
steps 257
al 256
reitet 256
skateboarder 256
sweatshirt 256
tanzt 256
brauner 254
fenster 254
gear 252
ladies 252
le 252
ling 252
pa@@ 252
benutzt 251
ta@@ 251
arbeiten 250
backpack 249
grill 249
show 249
stuhl 248
american 247
costume 247
fountain 247
rocks 247
l@@ 245
gentleman 244
like 242
adult 241
after 241
anzug 241
ch 241
el@@ 241
laughing 241
lila 241
zieht 241
geschäft 240
mo@@ 240
nimmt 240
arms 239
bu@@ 239
ein@@ 239
sa@@ 239
sp@@ 239
vom 239
spielzeug 238
stairs 238
stock 238
ung 238
wald 238
african 237
lich 237
lot 237
away 236
holz@@ 236
so@@ 236
typ 236
ab@@ 235
rides 235
sche 235
sh@@ 235
versammelt 235
pulling 234
ve 234
motorrad 233
chairs 232
dock 232
orangefarbenen 232
pullover 232
showing 232
slide 232
y@@ 232
ar@@ 231
schläft 231
buch 230
setting 230
bed 229
shoes 229
surrounded 229
on@@ 228
sonnenbrille 228
teil 228
equipment 227
wood 227
glass 226
radfahrer 225
see 225
instruments 224
cutting 223
flag 223
it@@ 223
run 223
haar 222
beiden 221
ihm 221
junges 221
ramp 221
ck 220
corner 220
hügel 220
ss@@ 220
cooking 219
fish 219
happ@@ 219
mi@@ 219
chasing 218
drink 218
crossing 217
pictures 217
at@@ 216
ly 216
oben 216
pro@@ 216
teams 216
unterhalten 216
forest 215
um@@ 215
ert 214
zug 214
ke 213
beautiful 212
rider 212
tasche 212
box 211
oder 211
seiner 210
take 210
takes 210
driving 209
ex@@ 209
mother 208
number 208
wasser@@ 208
bikes 207
haaren 207
midair 207
schen 207
station 207
verkauft 207
view 207
weiße 207
lehnt 206
swinging 206
c 205
gathering 205
giving 205
end 204
net 204
pe@@ 204
vi@@ 204
beobachtet 203
public 203
woods 203
aus@@ 202
em 202
mütze 202
trikot 202
trinkt 202
wear 202
bo@@ 201
platz 201
trail 201
treppe 201
erwachsene 200
markt 200
ger 199
plaid 199
shirtless 199
beer 198
genießt 198
grauen 198
vehicle 198
yard 198
handy 197
m 197
am@@ 196
between 196
biker 196
chen 196
schwarze 196
weißem 196
gibt 195
vests 195
fangen 194
bags 193
bikini 193
blauem 193
concrete 193
ni@@ 193
plastic 193
r@@ 193
sh 193
berg 192
cream 192
gekleidete 192
fe@@ 191
marathon 191
ons 191
schiebt 191
students 191
attempting 190
get 190
way 190
grau 189
gt 189
lying 189
malt 189
schneidet 189
te@@ 189
ab 188
flying 188
menge 188
bowling 187
kleinkind 187
practicing 187
son 187
sun 187
zaun 187
zu@@ 187
ck@@ 186
tall 186
attire 185
cleaning 185
cliff 185
fünf 185
gold 185
ihnen 185
or@@ 185
playground 185
time 185
structure 184
friends 183
seite 183
edge 182
pi@@ 182
ski 182
fruit 181
küche 181
new 181
skateboarding 181
sunny 181
winter 181
competing 180
led 180
teenager 180
ut@@ 180
we@@ 180
brücke 179
familie 179
ru@@ 179
männern 178
rodeo 178
vendor 178
welle 178
items 177
langen 177
sky 177
springen 177
cars 176
kicking 176
kindern 176
school 176
tent 176
cake 175
concert 175
einige 175
ern 175
ging 175
sehr 175
speaking 175
bauarbeiter 174
hemden 174
hängt 174
leaves 174
blauer 173
staring 173
ster 173
toward 173
ps 172
tes 172
wiese 172
alter 171
arts 171
mund 171
pose 171
zur 171
ho@@ 170
ne@@ 170
skirt 170
smiles 170
smoking 170
bi@@ 169
car@@ 169
fluss 169
kissing 169
schwimmt 169
seated 169
vor@@ 169
bull 168
outfits 168
werden 168
zwischen 168
coffee 167
court 167
fi@@ 167
shore 167
2 166
cross 166
gegen 166
jersey 166
ker 166
martial 166
beard 165
ei@@ 165
flower 165
haus 165
horses 165
rucksack 165
autos 164
bluse 164
conversation 164
ges 164
händen 164
lined 164
meer 164
wa@@ 164
wi@@ 164
shot 163
fighting 162
hebt 162
her@@ 162
make 162
pointing 162
clown 161
distance 161
flags 161
gekleideter 161
schwarzem 161
six 161
drums 160
fla@@ 160
roof 160
voller 160
buildings 159
he@@ 159
left 159
mar@@ 159
blumen 158
bottle 158
mutter 158
ping 158
rotem 158
sliding 158
animal 157
bird 157
ka@@ 157
scarf 157
surfing 157
listening 156
short 156
anderer 155
base 155
ches 155
door 155
home 155
painted 155
pre@@ 155
roter 155
tunnel 155
vegetables 155
can 154
ce 154
cup 154
filled 154
gestreiften 154
goggles 154
hit 154
laptop 154
place 154
skier 154
ted 154
unter@@ 154
geländer 153
schaukel 153
schlägt 153
tanzen 153
th@@ 153
- 152
gebäudes 152
meal 152
newspaper 152
paint 152
parking 152
suits 152
ur@@ 152
b 151
bahn 151
balloon 151
cement 151
ha@@ 151
jackets 151
jemand 151
just 151
king 151
laden 151
les 151
sen 151
über@@ 151
bathing 150
bucket 150
competition 150
display 150
ent@@ 150
miteinander 150
sprung 150
; 149
apron 149
au@@ 149
cigarette 149
costumes 149
metall@@ 149
roller 149
ci@@ 148
decke 148
dresses 148
j@@ 148
kneeling 148
maul 148
ring 148
sen@@ 148
tra@@ 148
bäumen 147
go 147
hinauf 147
match 147
rücken 147
spectators 147
balls 146
mountains 146
railing 146
scene 146
ste@@ 146
us 146
bearded 145
ber@@ 145
blanket 145
bride 145
hot 145
rocky 145
straßen@@ 145
fa@@ 144
fußballspieler 144
ihrer 144
ladder 144
ls 144
posieren 144
tri@@ 144
cra@@ 143
dach 143
right 143
safety 143
sk@@ 143
surfboard 143
da@@ 142
e-@@ 142
ger@@ 142
ler 142
middle-aged 142
musicians 142
passing 142
seil 142
sta@@ 142
stück 142
ure 142
3 141
blonde 141
boots 141
coming 141
lit 141
pile 141
rain 141
spiel@@ 141
beige 140
bicycles 140
blowing 140
cu@@ 140
females 140
helping 140
tricks 140
betrachtet 139
different 139
gen@@ 139
hände 139
lawn 139
parked 139
rote 139
w 139
warten 139
audience 138
fliegt 138
ft 138
skating 138
fest 137
few 137
oberkörper 137
sc@@ 137
sports 137
writing 137
bar@@ 136
cking 136
desk 136
facing 136
himmel 136
indian 136
ko@@ 136
lacht 136
leuten 136
mitten 136
runner 136
wedding 136
basket 135
military 135
musik 135
männ@@ 135
stunt 135
waves 135
ble 134
ende 134
platform 134
sing 134
weste 134
works 134
before 133
class 133
fahrzeug 133
father 133
papier 133
rail 133
stop 133
stufen 133
ying 133
classroom 132
drinks 132
eyes 132
perform 132
schuhe 132
throw 132
tor@@ 132
bereich 131
bowl 131
break 131
der@@ 131
gloves 131
hell@@ 131
kostüm 131
various 131
waving 131
younger 131
damen 130
golf 130
hugging 130
officer 130
cafe 129
fixing 129
gekleidet 129
gi@@ 129
rampe 129
sofa 129
tie 129
wet 129
zeitung 129
ar 128
artist 128
both 128
for@@ 128
leaping 128
lights 128
plate 128
poses 128
screen 128
seen 128
su@@ 128
blo@@ 127
einander 127
hammer 127
maschine 127
mat@@ 127
nachts 127
reaching 127
ss 127
tattoo 127
violin 127
cre@@ 126
lässt 126
pier 126
purse 126
regenschirm 126
schwimmbecken 126
skiing 126
streets 126
ten@@ 126
club 125
läufer 125
no@@ 125
nummer 125
resting 125
site 125
stra@@ 125
zuschauer 125
back@@ 124
belebten 124
eren 124
gegenstand 124
picking 124
ben 123
et 123
ks 123
pp@@ 123
reihe 123
sport 123
stri@@ 123
sunset 123
t-@@ 123
tor 123
umgeben 123
van 123
diving 122
fängt 122
land 122
mask 122
mitte 122
pass 122
washing 122
überquert 122
counter 121
fotos 121
il@@ 121
weißes 121
ated 120
country 120
gemüse 120
gewässer 120
gra@@ 120
helmets 120
lächeln 120
mu@@ 120
use 120
walkway 120
asiatische 119
bubbles 119
dancers 119
empty 119
enden 119
nen 119
qu@@ 119
schneebedeckten 119
ausrüstung 118
ckt 118
digging 118
flip 118
gerade 118
gu@@ 118
na@@ 118
scooter 118
which 118
asiatischer 117
balloons 117
greift 117
hole 117
jagt 117
ki@@ 117
made 117
no 117
silver 117
spe@@ 117
sten 117
uniformen 117
activity 116
catching 116
ded 116
dra@@ 116
hilft 116
hof 116
hohen 116
huge 116
kindes 116
musiker 116
nearby 116
performs 116
pping 116
rutscht 116
stein@@ 116
alley 115
alten 115
ating 115
befinden 115
blaue 115
christmas 115
feet 115
low 115
males 115
meat 115
onlookers 115
signs 115
asleep 114
cht 114
eln 114
scher 114
sti@@ 114
tables 114
westen 114
wrestling 114
bereit 113
bier 113
course 113
fahr@@ 113
gs 113
hiking 113
ken 113
lin@@ 113
mirror 113
officers 113
publikum 113
relaxing 113
singer 113
ski@@ 113
den@@ 112
drawing 112
großer 112
hoodie 112
kurzen 112
life 112
man@@ 112
photographer 112
video 112
bett 111
d-@@ 111
denen 111
et@@ 111
fußball@@ 111
hi@@ 111
kommt 111
lan@@ 111
ssen 111
stellt 111
ter@@ 111
wanderer 111
collar 110
electric 110
flo@@ 110
fuß 110
kick 110
kniet 110
leiter 110
rei@@ 110
rutsche 110
schi@@ 110
smile 110
sport@@ 110
when 110
brunnen 109
giant 109
go@@ 109
gym 109
position 109
schwingt 109
snowboard 109
stroller 109
sweeping 109
daughter 108
deck 108
el 108
h 108
pitcher 108
richtung 108
same 108
sting 108
tu@@ 108
tür 108
zelt 108
ä@@ 108
alte 107
block 107
chinese 107
erwachsener 107
fallen 107
garten 107
goal 107
hang 107
nahe 107
skifahrer 107
spazieren 107
sts 107
umbrellas 107
urban 107
alone 106
bart 106
bunt 106
business 106
canoe 106
cting 106
herunter 106
moving 106
pan@@ 106
reads 106
schwimm@@ 106
traditional 106
u-bahn 106
win@@ 106
überqueren 106
bat 105
brightly 105
church 105
ders 105
falling 105
fri@@ 105
küsst 105
members 105
mud 105
multicolored 105
performance 105
pu@@ 105
t-shirts 105
tro@@ 105
ufer 105
wheel 105
bunch 104
bunten 104
cal 104
cher 104
leaps 104
legt 104
raucht 104
square 104
toys 104
ü@@ 104
bereiten 103
blond-hair 103
cked 103
lap 103
ms 103
musical 103
tennisball 103
umarmt 103
appears 102
bau@@ 102
cloth 102
doorway 102
eis 102
ga@@ 102
korb 102
microscope 102
overlooking 102
y-@@ 102
chef 101
da 101
fo@@ 101
gather 101
ine 101
jo@@ 101
ment 101
polizist 101
snow@@ 101
sonne 101
spielplatz 101
squ@@ 101
sun@@ 101
telefoniert 101
ation 100
bicyclist 100
conversing 100
dunklen 100
hiker 100
holz 100
individuals 100
je@@ 100
jogging 100
liche 100
op@@ 100
rasen 100
rosafarbenen 100
sonnigen 100
splashing 100
studio 100
swim 100
ug@@ 100
unterhält 100
ad@@ 99
ces 99
det 99
finger 99
ihn 99
karate 99
over@@ 99
schal 99
schreibt 99
ses 99
tet 99
öffentlichen 99
elt 98
faces 98
sculpture 98
stein 98
sticks 98
talks 98
bro@@ 97
cyclist 97
eimer 97
leg 97
mauer 97
move 97
rolling 97
shoulder 97
veranstaltung 97
zigarette 97
ö@@ 97
accordion 96
atop 96
bald 96
beton@@ 96
blicken 96
blumen@@ 96
cor@@ 96
flagge 96
fun 96
getränk 96
happy 96
kämpfen 96
per@@ 96
runners 96
starrt 96
sto@@ 96
tire 96
zen 96
balancing 95
brunette 95
ching 95
f 95
festival 95
gerät 95
haare 95
ir@@ 95
kauft 95
opening 95
project 95
schnee@@ 95
shovel 95
sled 95
stühlen 95
telescope 95
vater 95
among 94
blick 94
bre@@ 94
cat 94
drum 94
eis@@ 94
em@@ 94
har@@ 94
headphones 94
ke@@ 94
office 94
participating 94
skate 94
softball 94
surft 94
teeth 94
vielen 94
werfen 94
4 93
bra@@ 93
checking 93
fans 93
fisch 93
garden 93
gets 93
gro@@ 93
gun 93
held 93
kon@@ 93
podium 93
shaking 93
stange 93
student 93
ul@@ 93
york 93
außerhalb 92
che@@ 92
chi@@ 92
cken 92
climbs 92
close 92
cur@@ 92
du@@ 92
feuer 92
ja@@ 92
konzert 92
orangen 92
robe 92
roll@@ 92
s-@@ 92
schürze 92
stadium 92
tion 92
trampoline 92
upside 92
bicyclists 91
braune 91
bs 91
cks 91
covering 91
dri@@ 91
ens 91
foreground 91
gate 91
grünem 91
hoch@@ 91
makeup 91
min@@ 91
ner 91
per 91
sed 91
teenage 91
traffic 91
trinken 91
ved 91
war@@ 91
weibli@@ 91
wen 91
zi@@ 91
ange@@ 90
armen 90
ct@@ 90
customers 90
dun@@ 90
fahrer 90
freiem 90
ozean 90
sewing 90
teenagers 90
wait 90
whom 90
action 89
athlete 89
ats 89
augen 89
bun@@ 89
carnival 89
cheerleaders 89
dar@@ 89
foot 89
leash 89
leather 89
pause 89
performer 89
produce 89
repariert 89
sm@@ 89
arena 88
barefoot 88
blond-haired 88
braut 88
crying 88
gymnast 88
kopfbedeckung 88
nebeneinander 88
pond 88
rotes 88
shallow 88
themselves 88
wal@@ 88
ched 87
cker 87
dirty 87
driver 87
examining 87
friend 87
heads 87
infant 87
kan@@ 87
ku@@ 87
lu@@ 87
marching 87
pin@@ 87
schuhen 87
shoveling 87
treten 87
turn 87
ves 87
waren 87
dancer 86
desert 86
dr@@ 86
fast 86
ferne 86
legs 86
mat 86
men@@ 86
netz 86
obst 86
photograph 86
plants 86
reiter 86
rin@@ 86
sechs 86
stadtstraße 86
surface 86
trikots 86
ungs@@ 86
zuschauern 86
chten 85
climb 85
gre@@ 85
hel@@ 85
keyboard 85
rad 85
schirm 85
taken 85
ans 84
booth 84
circle 84
dinner 84
enjoy 84
fall 84
hoop 84
juggling 84
künstler 84
log 84
mer@@ 84
poster 84
shed 84
tw@@ 84
verschneiten 84
zuschauen 84
arbeit 83
blondes 83
crosswalk 83
durch@@ 83
fotografiert 83
hin@@ 83
hinten 83
iert 83
jacken 83
kar@@ 83
kocht 83
lab 83
ol@@ 83
par@@ 83
polizisten 83
sandals 83
scheint 83
seat 83
shoe 83
sohn 83
sort 83
vogel 83
x 83
baseballspieler 82
carries 82
dark-haired 82
deep 82
ere 82
flie@@ 82
führen 82
glas 82
lunch 82
motor@@ 82
nacht 82
pf@@ 82
sonnenuntergang 82
ster@@ 82
taschen 82
trash 82
&amp; 81
badeanzug 81
coats 81
fel@@ 81
handstand 81
karierten 81
kel 81
lift 81
mural 81
objekt 81
ors 81
pouring 81
r 81
ren@@ 81
setzt 81
sharing 81
staircase 81
stream 81
trunks 81
unten 81
ur 81
app@@ 80
cow 80
cro@@ 80
geh@@ 80
hikers 80
paddling 80
part 80
put 80
schlagen 80
shaving 80
soldaten 80
soldiers 80
tischen 80
übt 80
beg@@ 79
davon 79
gar@@ 79
großes 79
haufen 79
hört 79
kuchen 79
leine 79
lone 79
pedestrians 79
pipe 79
regen@@ 79
riesigen 79
ste 79
stuffed 79
tänzer 79
ze 79
center 78
device 78
eat 78
ent 78
form@@ 78
fällt 78
ph@@ 78
racket 78
round 78
schlange 78
schläger 78
sha@@ 78
talk 78
verschiedene 78
wellen 78
buying 77
ce@@ 77
cut 77
fahrrad@@ 77
gegenstände 77
kunststück 77
me 77
mensch 77
motorradfahrer 77
nicht 77
puck 77
rand 77
schw@@ 77
shoulders 77
sli@@ 77
straßenrand 77
wei@@ 77
zurück 77
zusehen 77
bri@@ 76
closed 76
flasche 76
hau@@ 76
klettern 76
landschaft 76
let 76
lt 76
mittleren 76
not 76
overalls 76
prepares 76
pulled 76
says 76
schlagzeug 76
sings 76
skater 76
straw 76
underneath 76
versuchen 76
weibliche 76
balanciert 75
blouse 75
books 75
café 75
dass 75
floating 75
freunde 75
gelber 75
golden 75
herr 75
instrumente 75
kinderwagen 75
kt 75
lea@@ 75
mon@@ 75
nehmen 75
raft 75
row 75
rugby 75
saxophone 75
sches 75
schlitten 75
sco@@ 75
shooting 75
slope 75
style 75
town 75
tz@@ 75
uses 75
ve@@ 75
aring 74
arme 74
basketballspieler 74
bling 74
bread 74
cted 74
dd@@ 74
einigen 74
hula 74
jockey 74
kayak 74
kostümen 74
local 74
parkplatz 74
sea@@ 74
soldier 74
stadt@@ 74
tanktop 74
tem 74
ut 74
ver 74
ws 74
yo@@ 74
1@@ 73
bedeckt 73
blaues 73
ct 73
eh@@ 73
gri@@ 73
kl@@ 73
kunden 73
lichen 73
mannschaft 73
mm@@ 73
operating 73
paved 73
renn@@ 73
sandwich 73
sch 73
steigt 73
ters 73
z 73
ze@@ 73
zusieht 73
airplane 72
alters 72
animals 72
bikers 72
formal 72
gla@@ 72
help 72
inter@@ 72
jungs 72
ledge 72
musician 72
pit@@ 72
reinigt 72
sand@@ 72
ser 72
steine 72
straßenecke 72
tasse 72
waits 72
wine 72
wing 72
balcony 71
baustelle 71
bläst 71
can@@ 71
carry 71
gelbe 71
goalie 71
maske 71
nose 71
pfad 71
piano 71
picnic 71
rest 71
schiedsrichter 71
schüler 71
tre@@ 71
waters 71
wetsuit 71
without 71
x@@ 71
zer@@ 71
zuschaut 71
boxes 70
brushing 70
bt 70
bäume 70
cam@@ 70
cane 70
entspannt 70
feuer@@ 70
gebiet 70
grilling 70
kanu 70
kämpft 70
pen 70
poles 70
sack 70
schatten 70
sell 70
skateboardfahrer 70
skis 70
spaß 70
tanz 70
winkt 70
zeit 70
5 69
ate 69
beobachten 69
beugt 69
but@@ 69
cha@@ 69
cht@@ 69
clean 69
crouching 69
cyclists 69
dern 69
direction 69
far@@ 69
fleisch 69
grüne 69
inspecting 69
kunst@@ 69
len@@ 69
licht 69
liegen 69
lots 69
mehreren 69
männliche 69
neck 69
ort 69
plane 69
puddle 69
regen 69
ship 69
stre@@ 69
tools 69
tourists 69
tracks 69
zimmer 69
cold 68
dreht 68
eye 68
gemeinsam 68
hin 68
hurdle 68
kleider 68
klippe 68
loch 68
moped 68
neon 68
pot 68
prepare 68
ruht 68
santa 68
serving 68
sters 68
streckt 68
surfbrett 68
tex@@ 68
tier 68
ungen 68
verwendet 68
ant 67
bedient 67
below 67
betrachten 67
erin 67
fair 67
fell 67
fight 67
flugzeug 67
gel@@ 67
inflatable 67
item 67
kurz 67
laundry 67
lkw 67
offenen 67
oriental 67
pflanzen 67
spi@@ 67
spielzeug@@ 67
sub@@ 67
touching 67
tractor 67
tries 67
verkäufer 67
ßt 67
2@@ 66
asiatischen 66
bahn@@ 66
bent 66
boats 66
bubble 66
catches 66
cing 66
climber 66
cones 66
cs 66
flies 66
gers 66
gerüst 66
goods 66
groom 66
heavy 66
indoor 66
klassenzimmer 66
lau@@ 66
makes 66
native 66
plan@@ 66
plaza 66
sheep 66
sheet 66
swings 66
taxi 66
waterfall 66
wooded 66
zt 66
älteren 66
baum@@ 65
beide 65
ber 65
boun@@ 65
bur@@ 65
ction 65
einkaufswagen 65
fahrräder 65
fingers 65
fle@@ 65
fre@@ 65
fro@@ 65
guard 65
hüten 65
luggage 65
mound 65
ous 65
ped 65
pit 65
porch 65
ran@@ 65
reden 65
redet 65
rowing 65
schaufel 65
schreibtisch 65
ser@@ 65
sol@@ 65
sonnen@@ 65
tan@@ 65
taucht 65
telefon 65
tool 65
umgebung 65
vers 65
water@@ 65
welding 65
wobei 65
ziehen 65
age 64
angel@@ 64
arti@@ 64
bil@@ 64
blonden 64
diese 64
erde 64
hitting 64
lachen 64
lastwagen 64
london 64
mikroskop 64
mom 64
plastik@@ 64
pri@@ 64
putzt 64
railroad 64
riders 64
robes 64
schwarz-@@ 64
shade 64
spray 64
sprechen 64
städtischen 64
these 64
tochter 64
tops 64
tube 64
tur@@ 64
acoustic 63
ast 63
auto@@ 63
banner 63
bending 63
birds 63
bringt 63
cheerleader 63
cke 63
firefighters 63
footballspieler 63
gentlemen 63
gespräch 63
gleich 63
gräbt 63
grüner 63
jerseys 63
kleidern 63
leans 63
magazine 63
nap 63
ne 63
racer 63
sandy 63
schlag 63
schüssel 63
son@@ 63
spiegel 63
ssi@@ 63
start 63
teller 63
throws 63
verkaufen 63
zeichen 63
atv 62
aufge@@ 62
aufschrift 62
blocks 62
blätter 62
bärtiger 62
cheering 62
col@@ 62
ell@@ 62
ely 62
eri@@ 62
erwachsenen 62
fabric 62
fer 62
ff@@ 62
garbage 62
gehsteig 62
grocery 62
guckt 62
hal@@ 62
hockt 62
kajak 62
kaufen 62
kn@@ 62
kreis 62
land@@ 62
leeren 62
matching 62
museum 62
ohne 62
opposing 62
protective 62
sal@@ 62
sam@@ 62
schlauch 62
scht 62
schul@@ 62
spar@@ 62
surf 62
sänger 62
third 62
ung@@ 62
versammeln 62
well 62
windows 62
airport 61
ban@@ 61
bat@@ 61
carriage 61
com@@ 61
davor 61
feeding 61
fen 61
gegeneinander 61
landscape 61
licher 61
orchestra 61
plant 61
routine 61
run@@ 61
seven 61
so 61
steep 61
strecke 61
string 61
surrounding 61
teacher 61
untersucht 61
ven 61
ali@@ 60
arbeit@@ 60
arm@@ 60
ati@@ 60
ballerina 60
baut 60
berg@@ 60
cowboys 60
dreadlocks 60
ea@@ 60
fu@@ 60
haircut 60
hallway 60
individual 60
kel@@ 60
khaki 60
kirche 60
krawatte 60
len 60
observing 60
polo 60
professional 60
sale 60
schutzhelm 60
schwarzes 60
sea 60
skulptur 60
snack 60
struktur 60
swimsuit 60
trampolin 60
underwater 60
vordergrund 60
wo 60
wrapped 60
-up 59
barbecue 59
bein 59
belebte 59
bmx 59
boards 59
brett 59
brush 59
candy 59
cat@@ 59
crew 59
dol@@ 59
elling 59
fin@@ 59
gan@@ 59
garage 59
gr@@ 59
grillt 59
image 59
kes 59
klein@@ 59
lesen 59
ning 59
nt 59
overall 59
pavement 59
scaffolding 59
schwarz-weißer 59
schwimmen 59
schwimmer 59
scra@@ 59
sel@@ 59
skirts 59
snowboarding 59
ssion 59
straßen 59
wettkampf 59
wheelchair 59
är@@ 59
baseball@@ 58
basketball@@ 58
bergen 58
celebrating 58
clear 58
coach 58
courtyard 58
denim 58
dining 58
ei 58
erten 58
evening 58
fahrradfahrer 58
fall@@ 58
flight 58
fol@@ 58
foreign 58
fra@@ 58
fresh 58
gasse 58
gegend 58
gegenüber 58
gelbes 58
genießen 58
go-@@ 58
handschuhen 58
hinter@@ 58
hundes 58
kappe 58
ked 58
married 58
material 58
moment 58
petting 58
policeman 58
reifen 58
schoß 58
schuh 58
singen 58
suspended 58
things 58
try 58
wandert 58
wed 58
abge@@ 57
advertisement 57
ausge@@ 57
ball@@ 57
bla@@ 57
bucking 57
dunkel@@ 57
ecke 57
ers@@ 57
ery 57
escalator 57
frame 57
fruits 57
garb 57
gebäuden 57
gelbem 57
german 57
horn 57
hu@@ 57
ite 57
japanese 57
leading 57
marketplace 57
name 57
obstacle 57
ori@@ 57
palm 57
passes 57
presentation 57
rück@@ 57
schulter 57
step 57
stool 57
stopped 57
th 57
tongue 57
tr@@ 57
turning 57
vehicles 57
wagon 57
wears 57
wurf 57
überfüllten 57
akkordeon 56
backyard 56
bogen 56
chter 56
dis@@ 56
ender 56
ene 56
felswand 56
hol@@ 56
hotel 56
kiss 56
kor@@ 56
loading 56
mahlzeit 56
map 56
mit@@ 56
money 56
objects 56
peace 56
peering 56
projekt 56
shows 56
studenten 56
ty 56
äu@@ 56
5@@ 55
attached 55
bel@@ 55
bilder 55
blonder 55
brown-haired 55
camouflage 55
chain 55
discussing 55
fahrrädern 55
fußballspiel 55
gestreiftem 55
grinding 55
grünes 55
hay 55
heben 55
lifting 55
moves 55
nacktem 55
pizza 55
pol@@ 55
por@@ 55
raising 55
schüttelt 55
shown 55
speech 55
sse 55
sticking 55
thrown 55
va@@ 55
vo@@ 55
we 55
ß@@ 55
.@@ 54
0@@ 54
air@@ 54
bal@@ 54
blau-@@ 54
boxing 54
craft 54
dro@@ 54
flaggen 54
ful 54
gh@@ 54
handtasche 54
himself 54
hood 54
hüte 54
ic 54
id 54
inmitten 54
jongliert 54
katze 54
model 54
motocross 54
motorcycles 54
onen 54
pajamas 54
parkbank 54
pitch 54
points 54
poli@@ 54
rot-@@ 54
rä@@ 54
sandalen 54
seifenblasen 54
spinning 54
sprin@@ 54
sprinkler 54
squatting 54
stiefeln 54
stoff 54
stove 54
strand@@ 54
summer 54
teich 54
tin@@ 54
ton@@ 54
training 54
u 54
wettbewerb 54
ziert 54
0 53
ad 53
ami@@ 53
backwards 53
bade@@ 53
bass 53
ben@@ 53
benches 53
cans 53
cone 53
curb 53
dan@@ 53
dances 53
dish 53
frei@@ 53
gang 53
geige 53
getränke 53
gives 53
head@@ 53
heels 53
jean 53
jugendlicher 53
laptops 53
ming 53
pferde 53
ppen 53
present 53
puppy 53
rad@@ 53
red-haired 53
referee 53
ropes 53
say 53
schlamm 53
scuba 53
snow-covered 53
steigen 53
stell@@ 53
stretching 53
viewing 53
zeichnet 53
3@@ 52
and@@ 52
anzügen 52
bach 52
banan@@ 52
bottom 52
cello 52
clo@@ 52
cloudy 52
dir@@ 52
discussion 52
ears 52
ell 52
fahrt 52
fe 52
goes 52
good 52
gravel 52
here 52
kampf@@ 52
laugh 52
liches 52
mixing 52
motorcyclist 52
oping 52
ops 52
paddelt 52
rennstrecke 52
schotter@@ 52
seil@@ 52
sink 52
sleeps 52
socks 52
sor@@ 52
spraying 52
steckt 52
stu@@ 52
towel 52
typen 52
vely 52
walls 52
wh@@ 52
äh@@ 52
( 51
amusement 51
anderes 51
bars 51
bekleidung 51
berührt 51
bow 51
cricket 51
dre@@ 51
dune 51
eling 51
end@@ 51
figure 51
first 51
gekleideten 51
gemälde 51
hauses 51
holt 51
hunde@@ 51
ker@@ 51
lie@@ 51
lies 51
lächelnd 51
machinery 51
maroon 51
nach@@ 51
ned 51
nice 51
pe 51
pen@@ 51
pes 51
pla@@ 51
protest 51
rela@@ 51
tub 51
wind@@ 51
wäscht 51
öffnet 51
) 50
alle 50
appear 50
assi@@ 50
barri@@ 50
baskets 50
bath 50
beam 50
defen@@ 50
din@@ 50
dry 50
fer@@ 50
fl@@ 50
floral 50
ganz 50
guitarist 50
hall 50
happily 50
hei@@ 50
ie 50
ie@@ 50
kaffee 50
kicks 50
koch 50
lauf@@ 50
lounging 50
lö@@ 50
musik@@ 50
männlicher 50
pferden 50
pfosten 50
post 50
schau@@ 50
sses 50
sted 50
steinen 50
stones 50
stü@@ 50
tile 50
zähne 50
än@@ 50
! 49
ac@@ 49
bandanna 49
barfuß 49
berge 49
beverage 49
bow@@ 49
box@@ 49
boxer 49
braunem 49
case 49
choir 49
decorated 49
derby 49
deut@@ 49
doctor 49
fahnen 49
fan@@ 49
fencing 49
gas 49
ged 49
geld 49
grauem 49
hängen 49
ings 49
intersection 49
itt@@ 49
ity 49
jumpsuit 49
kite 49
lauf 49
lei@@ 49
lines 49
live 49
living 49
location 49
mobile 49
mp@@ 49
navy 49
off@@ 49
organi@@ 49
park@@ 49
raised 49
reiten 49
schaufelt 49
schneiden 49
skateboards 49
song 49
speaks 49
stadion 49
swimmer 49
tel 49
teleskop 49
theater 49
tho@@ 49
top@@ 49
wn 49
yoga 49
you 49
youth 49
ance 48
balance 48
becher 48
bewegt 48
birthday 48
bl@@ 48
brea@@ 48
dishes 48
drummer 48
fan 48
feiert 48
fire@@ 48
ft@@ 48
fully 48
fun@@ 48
gg@@ 48
gießt 48
groß@@ 48
guitars 48
halsband 48
harness 48
hillside 48
interacting 48
jungle 48
karte 48
lar 48
racetrack 48
rea@@ 48
ribbon 48
schultern 48
shepherd 48
sized 48
stan@@ 48
stift 48
teaching 48
trucks 48
umge@@ 48
wheelie 48
wire 48
9@@ 47
allein 47
apple 47
asiatisches 47
backpacks 47
bottles 47
carving 47
ced 47
checkered 47
dieser 47
eins 47
fal@@ 47
fenced 47
finish 47
firetruck 47
flipping 47
gezogen 47
glas@@ 47
gut 47
haar@@ 47
including 47
jemandem 47
kers 47
kopfhörer 47
lane 47
le-@@ 47
linie 47
metall 47
ot@@ 47
out@@ 47
passengers 47
read 47
saw 47
shoot 47
smo@@ 47
swe@@ 47
tending 47
tents 47
touristen 47
trumpet 47
verkleidet 47
vers@@ 47
vil 47
wer@@ 47
all@@ 46
athletes 46
band@@ 46
batter 46
baumstamm 46
bekommt 46
bis 46
bushes 46
carpet 46
castle 46
closeup 46
ctors 46
don@@ 46
ear@@ 46
eight 46
falls 46
fli@@ 46
flug@@ 46
form 46
hooded 46
hun@@ 46
hunden 46
library 46
long-haired 46
medical 46
mel@@ 46
mikrophon 46
muddy 46
multiple 46
opposite 46
orangefarbener 46
para@@ 46
pinkfarbenen 46
print 46
pull 46
quarterback 46
rubber 46
sachen 46
schuh@@ 46
see@@ 46
she@@ 46
skates 46
spa@@ 46
sporting 46
spritzt 46
starting 46
streifen 46
swimmers 46
tee 46
tennis@@ 46
tru@@ 46
tt@@ 46
uni@@ 46
up@@ 46
ven@@ 46
voll 46
vollen 46
2012 45
army 45
ary 45
bad 45
beleuchteten 45
blatt 45
bli@@ 45
calf 45
caught 45
chest 45
colle@@ 45
computers 45
curly 45
domin@@ 45
duck 45
dunkelhäutiger 45
dy 45
ear 45
enen 45
farm 45
fisherman 45
furniture 45
gel 45
gepflasterten 45
geworfen 45
graben 45
grasbewachsenen 45
half 45
igen 45
ing@@ 45
innen 45
inten@@ 45
kampf 45
kü@@ 45
oc@@ 45
os 45
patio 45
pilot 45
placing 45
pra@@ 45
puts 45
rasiert 45
rec@@ 45
receiving 45
rollerblades 45
slo@@ 45
smoke 45
ssing 45
star@@ 45
tuch 45
uts 45
vegetable 45
veranda 45
wein@@ 45
weiß-@@ 45
werbung 45
wit@@ 45
wüste 45
zing 45
8 44
banjo 44
bles 44
boardwalk 44
bräutigam 44
bü@@ 44
chen@@ 44
conference 44
corn 44
ence 44
excited 44
felsigen 44
filling 44
folding 44
following 44
free 44
funny 44
gelegt 44
gesch@@ 44
great 44
horseback 44
joggt 44
kissen 44
knee 44
ments 44
microphones 44
mohawk 44
müll 44
pick 44
pil@@ 44
pl@@ 44
pur@@ 44
repairing 44
reparieren 44
rit@@ 44
scha@@ 44
schla@@ 44
schn@@ 44
sets 44
shaped 44
sitz@@ 44
snowboar@@ 44
stru@@ 44
sucht 44
sw@@ 44
tau@@ 44
terrasse 44
til@@ 44
vie@@ 44
wrestler 44
4@@ 43
adjusting 43
ally 43
ars 43
athletic 43
außen@@ 43
badehose 43
ballons 43
barrel 43
bear 43
bel 43
bin 43
card 43
chefs 43
chern 43
coloring 43
container 43
coo@@ 43
dies 43
drives 43
eingang 43
fen@@ 43
fern 43
ffen 43
fil@@ 43
football-spieler 43
fußgänger 43
gekleidetes 43
grin@@ 43
heraus 43
high-@@ 43
hinaus 43
ht 43
höhe 43
indoors 43
jockeys 43
kinder@@ 43
kurzer 43
leuchtend 43
located 43
mannschaften 43
ner@@ 43
nets 43
ober@@ 43
patient 43
pfütze 43
plakat 43
pper 43
ringen 43
rock@@ 43
schießt 43
seats 43
skiers 43
space 43
spiels 43
stern 43
stier 43
stop@@ 43
streichelt 43
sword 43
tanz@@ 43
test 43
tourist 43
traveling 43
treffen 43
unds 43
ute 43
vendors 43
verfolgt 43
wading 43
wir@@ 43
wohn@@ 43
zeigen 43
ziegel@@ 43
ard 42
athle@@ 42
attempts 42
attending 42
bathroom 42
belt 42
branch 42
broom 42
buckets 42
clay 42
desig@@ 42
emergency 42
entrance 42
ey@@ 42
firemen 42
fotograf 42
geschirr 42
glo@@ 42
innen@@ 42
instru@@ 42
kann 42
kommen 42
kopfüber 42
laughs 42
leaving 42
lebensmittel 42
lining 42
links 42
lächelnde 42
mal@@ 42
mall 42
mitglieder 42
mobiltelefon 42
mor@@ 42
narrow 42
nase 42
newborn 42
ns 42
ny 42
pair 42
performers 42
photographs 42
polka 42
protesting 42
pulls 42
richtet 42
rink 42
san@@ 42
schönen 42
seines 42
shes 42
spor@@ 42
stühle 42
sum@@ 42
swims 42
theke 42
them@@ 42
trainiert 42
unbefestigten 42
v 42
werk@@ 42
admiring 41
atten@@ 41
balken 41
bedeckten 41
behälter 41
biking 41
bin@@ 41
blow 41
cardboard 41
ceiling 41
char@@ 41
charac@@ 41
crane 41
del@@ 41
desc@@ 41
disk@@ 41
einzel@@ 41
erte 41
factory 41
fläche 41
fr@@ 41
fü@@ 41
gehalten 41
gli@@ 41
gten 41
hair@@ 41
handing 41
hellbrauner 41
helmen 41
jewelry 41
jumped 41
kat@@ 41
koffer 41
lacrosse 41
let@@ 41
metal@@ 41
motorbike 41
muster 41
polizei@@ 41
post@@ 41
praying 41
ry 41
schreit 41
sho@@ 41
sonnenbrillen 41
tennisspieler 41
teppich 41
terrain 41
wür@@ 41
zusammen@@ 41
ale 40
alen 40
ani@@ 40
applying 40
balkon 40
beinen 40
bemalt 40
bälle 40
cal@@ 40
care 40
caucasian 40
chalk 40
cli@@ 40
college 40
dessen 40
dge 40
diti@@ 40
dj 40
dough 40
engine 40
ered 40
feier 40
fly 40
fä@@ 40
geschlossenen 40
groups 40
hangs 40
helme 40
hospital 40
hü@@ 40
iten 40
kai 40
keep 40
kuh 40
kurve 40
küssen 40
linken 40
lit@@ 40
matte 40
mechani@@ 40
member 40
müll@@ 40
neoprenanzug 40
nighttime 40
opponent 40
orangefarbenem 40
pan 40
papers 40
parents 40
photos 40
pped 40
practice 40
ral 40
res 40
scenery 40
schirme 40
schwimmbrille 40
sin@@ 40
sold 40
soldat 40
spielfeld 40
spitze 40
sprinkl@@ 40
stro@@ 40
stä@@ 40
texas 40
traktor 40
tzen 40
warm 40
wurde 40
zed 40
zwei@@ 40
6 39
aged 39
aussieht 39
barber 39
beam@@ 39
bowls 39
browsing 39
candles 39
cap@@ 39
chases 39
comple@@ 39
dead 39
dire@@ 39
einge@@ 39
entertain@@ 39
fancy 39
feuerwehrleute 39
fireman 39
float 39
geben 39
gegenseitig 39
gestrei@@ 39
give 39
herself 39
hinunter@@ 39
hüpft 39
il 39
indi@@ 39
jack@@ 39
ju@@ 39
kampfsport 39
ket@@ 39
kil@@ 39
kä@@ 39
küste 39
lamp 39
lifted 39
luftballons 39
mming 39
nickerchen 39
oberteilen 39
order 39
parasailing 39
pigeons 39
plattform 39
profession@@ 39
pushes 39
rainbow 39
rolltreppe 39
sammelt 39
schnauze 39
schutz@@ 39
seems 39
slides 39
speed 39
sportler 39
storefront 39
stroll 39
sä@@ 39
tafel 39
teilt 39
tiere 39
times 39
tle 39
verschiedenen 39
viel 39
wide 39
ys 39
-like 38
anti@@ 38
anzu@@ 38
ari@@ 38
ator 38
aufführung 38
bei@@ 38
benutzen 38
billboard 38
binoculars 38
bor@@ 38
cards 38
comfor@@ 38
compete 38
conven@@ 38
cup@@ 38
donkey 38
eastern 38
electronic 38
elephant 38
els 38
enjoys 38
feat@@ 38
fest@@ 38
feuerwehr@@ 38
feuerwehrmann 38
figur 38
fischer 38
fischt 38
fotografieren 38
g-@@ 38
gift 38
gucken 38
gui@@ 38
headband 38
jeep 38
kranken@@ 38
lied 38
lä@@ 38
ornate 38
outstretched 38
part@@ 38
pieces 38
pine 38
plates 38
presenting 38
radrennen 38
reaches 38
rechts 38
schaukelt 38
schnell 38
security 38
sel 38
shine 38
sil@@ 38
sion 38
skiern 38
spielers 38
spon@@ 38
sprüht 38
stairway 38
straßenkünstler 38
sur@@ 38
tain 38
tattooed 38
television 38
tte 38
turns 38
und@@ 38
uniformed 38
unterwegs 38
ving 38
wand@@ 38
ahead 37
amerikanischen 37
amp 37
apartment 37
arch@@ 37
asiaten 37
asiatisch 37
auftritt 37
blume 37
bullen 37
bushaltestelle 37
cally 37
cameras 37
cape 37
clowns 37
co 37
control 37
cru@@ 37
daumen 37
durchs 37
ern@@ 37
fix 37
flute 37
football@@ 37
formation 37
fotografen 37
freunden 37
geln 37
geschenk 37
grün-@@ 37
guards 37
guns 37
headscarf 37
hoops 37
hotdog 37
houses 37
intervie@@ 37
involved 37
irgend@@ 37
job 37
kiste 37
kletterer 37
kreuzung 37
long-sleeved 37
mehr@@ 37
mustache 37
necklace 37
oes 37
papier@@ 37
pillow 37
pop@@ 37
pottery 37
puppe 37
que 37
rod 37
rudert 37
salon 37
schwebt 37
skatepark 37
ssed 37
stack 37
studying 37
tackle 37
tattoos 37
tigen 37
turn@@ 37
uf@@ 37
verkehr 37
waffe 37
ward 37
wheels 37
whi@@ 37
will 37
yer 37
za@@ 37
1 36
6@@ 36
amerikanische 36
angel 36
angelt 36
approaching 36
aqu@@ 36
attempt 36
auditorium 36
backs 36
bauen 36
befestigt 36
berges 36
black@@ 36
broken 36
bron@@ 36
button 36
buy 36
ce-@@ 36
chtet 36
cla@@ 36
coaster 36
craw@@ 36
dad 36
dark-skinned 36
debris 36
diesem 36
dum@@ 36
eggs 36
either 36
engaged 36
expre@@ 36
farbenfrohen 36
farmer 36
fegt 36
feldweg 36
flip-flops 36
fuß@@ 36
fäl@@ 36
gegnerischen 36
ggy 36
grand@@ 36
groceries 36
heading 36
hellen 36
helps 36
hochzeit@@ 36
hor@@ 36
hütte 36
jet 36
jugendliche 36
kick@@ 36
kin@@ 36
kisten 36
kletter@@ 36
kostüme 36
lay 36
lays 36
lehrer 36
lilafarbenen 36
meeting 36
militär@@ 36
mitarbeiter 36
mö@@ 36
only 36
orchester 36
pick@@ 36
point 36
que@@ 36
red-hair 36
reicht 36
restaurants 36
rings 36
rollerblading 36
rough 36
salto 36
scheibe 36
sees 36
shel@@ 36
shi@@ 36
sides 36
silly 36
stapel 36
star 36
stehenden 36
stripes 36
tackling 36
tea 36
tied 36
tisch@@ 36
tomat@@ 36
tower 36
tray 36
vorbei@@ 36
weint 36
wife 36
wild 36
won@@ 36
überprüft 36
-down 35
aisle 35
ates 35
aussehende 35
barrier 35
beton 35
bildschirm 35
ble@@ 35
blei@@ 35
bricks 35
bringen 35
brot 35
büro 35
ca 35
carts 35
cowboyhut 35
cross@@ 35
dig@@ 35
dinge 35
directions 35
downtown 35
drachen 35
e-gitarre 35
eats 35
ering 35
ethnic 35
exhibit 35
experiment 35
farbenen 35
freiluft@@ 35
früchte 35
füllt 35
gazing 35
ght 35
grauer 35
greyhound 35
gymnasium 35
hl@@ 35
hlen 35
hugs 35
hören 35
iel@@ 35
kehrt 35
learning 35
legen 35
medi@@ 35
more 35
mü@@ 35
nassen 35
neighborhood 35
nu@@ 35
nur 35
nähmaschine 35
oms 35
ong@@ 35
oni@@ 35
oper@@ 35
oranges 35
parachut@@ 35
photographed 35
ppe 35
puppies 35
reach 35
repairs 35
rural 35
schaufenster 35
schen@@ 35
schäferhund 35
sicht@@ 35
sieben 35
sig@@ 35
silhouette 35
story 35
super@@ 35
sweat@@ 35
szene 35
techni@@ 35
tennisschläger 35
tern 35
tige 35
tür@@ 35
unicycle 35
ures 35
vel@@ 35
violetten 35
wander@@ 35
weather 35
weaving 35
welpen 35
wheelbarrow 35
wild@@ 35
wra@@ 35
written 35
zeuge 35
zunge 35
ach 34
ameri@@ 34
babys 34
beieinander 34
besen 34
blin@@ 34
boarding 34
brief@@ 34
camel 34
catcher 34
ceremony 34
chase 34
chicken 34
cool 34
crafts 34
damit 34
doll 34
done 34
dusk 34
ey 34
finger@@ 34
flachen 34
fluffy 34
flur 34
folded 34
folgt 34
four@@ 34
füttert 34
gesi@@ 34
gezeigt 34
gitarrist 34
gras@@ 34
heart 34
hoben 34
hürde 34
instrumenten 34
intently 34
kante 34
karren 34
kayaking 34
keys 34
klavier 34
kopftuch 34
kra@@ 34
kten 34
kunst 34
langem 34
liquid 34
machines 34
mes 34
monument 34
motorcyclists 34
odd 34
olympics 34
partially 34
pass@@ 34
pea@@ 34
push 34
rainy 34
reflective 34
repair 34
runden 34
saxophon 34
schießen 34
schle@@ 34
schutzhelmen 34
shining 34
shoppers 34
sitz 34
sks 34
spoon 34
steinmauer 34
tered 34
thumbs 34
tly 34
trainer 34
treppen 34
tze 34
wein 34
wen@@ 34
ßen 34
8@@ 33
ado@@ 33
ausstellung 33
bagpipes 33
bare 33
been 33
beißt 33
beverages 33
bite 33
biting 33
blasen 33
braun-weißer 33
burgundy 33
cher@@ 33
china 33
chor 33
chte 33
clapping 33
cups 33
customer 33
cut@@ 33
cycling 33
dert 33
diver 33
doors 33
eing 33
ets 33
flaschen 33
games 33
glove 33
gold@@ 33
golf@@ 33
got 33
gummi@@ 33
hals 33
hockey@@ 33
hoo@@ 33
hudd@@ 33
inspi@@ 33
ities 33
john 33
k-@@ 33
kerl 33
kickt 33
kle@@ 33
kragen 33
krei@@ 33
labor 33
landing 33
laub@@ 33
lead 33
leap 33
mcdonald 33
mer 33
monitor 33
moti@@ 33
nail 33
oli@@ 33
operation 33
pack 33
paddle 33
pel@@ 33
photograph@@ 33
plat@@ 33
ppt 33
rafting 33
rast 33
rau@@ 33
red@@ 33
rickshaw 33
rohr 33
rollstuhl 33
rug 33
sailing 33
schilder 33
schweißt 33
science 33
scooters 33
sna@@ 33
snowsuit 33
span@@ 33
spo@@ 33
spread 33
springbrunnen 33
stellen 33
strolling 33
sty@@ 33
tch 33
teens 33
teig 33
turned 33
twir@@ 33
umarmen 33
viol@@ 33
visiting 33
wasserfall 33
weihnachtsbaum 33
wäsche 33
zen@@ 33
zer 33
ße 33
ähn@@ 33
abend 32
abzu@@ 32
ai@@ 32
ang@@ 32
asiate 32
attention 32
aufzu@@ 32
ballet 32
becken 32
beneath 32
book@@ 32
bällen 32
bücher 32
caps 32
chainsaw 32
ckten 32
cle@@ 32
cobblestone 32
comm@@ 32
cook 32
cts 32
ddy 32
demonstration 32
dress@@ 32
dunkler 32
einkauf@@ 32
erd@@ 32
ess@@ 32
fahne 32
fake 32
flowered 32
foto@@ 32
gesturing 32
giert 32
gleisen 32
gn@@ 32
gymnastics 32
handtuch 32
helfen 32
herd 32
hl 32
hn@@ 32
hockeyspieler 32
homeless 32
hr@@ 32
kie 32
kie@@ 32
kit@@ 32
kla@@ 32
kno@@ 32
logs 32
naked 32
nam@@ 32
nature 32
nähert 32
ou@@ 32
outdoor-@@ 32
oven 32
paints 32
peeking 32
planting 32
pt 32
pul@@ 32
regi@@ 32
richten 32
rollt 32
scending 32
shaved 32
shops 32
show@@ 32
sich@@ 32
sleeveless 32
spla@@ 32
ssen@@ 32
stance 32
steel 32
stet 32
stic 32
stoff@@ 32
street@@ 32
stö@@ 32
suitcase 32
teal 32
telephone 32
tires 32
topf 32
tossing 32
trailer 32
village 32
visible 32
werk 32
werkzeug 32
wn@@ 32
wning 32
yed 32
bahnhof 31
ballon 31
bekommen 31
blu@@ 31
bum@@ 31
bänken 31
chers 31
couples 31
creating 31
crouched 31
dam@@ 31
dering 31
drill 31
entfernt 31
essen@@ 31
exercise 31
felsen@@ 31
fenster@@ 31
firefighter 31
gem 31
gemacht 31
gepäck 31
gesehen 31
gleitet 31
goldenen 31
gs@@ 31
handschuhe 31
hellblauen 31
hindernis 31
hinterher 31
hug 31
hur@@ 31
juice 31
kam@@ 31
karate@@ 31
kneels 31
kopf@@ 31
küchen@@ 31
laub 31
lederjacke 31
leggings 31
lächelnder 31
maneu@@ 31
marschiert 31
mic 31
mmed 31
modern 31
mostly 31
motor 31
neon@@ 31
observe 31
overhead 31
paint@@ 31
passanten 31
play@@ 31
rahmen 31
rede 31
rollerskating 31
scarves 31
schuss 31
schwimmbad 31
scouts 31
screaming 31
sei@@ 31
sitzende 31
skaters 31
slee@@ 31
target 31
teilen 31
tief 31
tieren 31
torch 31
trommel 31
trommeln 31
umzug 31
upon 31
verkehr@@ 31
winter@@ 31
ß 31
: 30
acht 30
advertising 30
airborne 30
alleine 30
are@@ 30
asians 30
assem@@ 30
auch 30
aussehender 30
balding 30
bouquet 30
bowlingkugel 30
brünette 30
button@@ 30
called 30
camping 30
chess 30
chinesischen 30
chopping 30
clad 30
clim@@ 30
cloth@@ 30
come 30
company 30
constru@@ 30
cool@@ 30
ddle 30
dimly 30
dose 30
dunkelhäutige 30
dust 30
ellen 30
embracing 30
endes 30
enthusia@@ 30
er-@@ 30
fahrzeuge 30
ffs 30
filmt 30
flughafen 30
fs 30
garten@@ 30
geländemotorrad 30
genen 30
geparkt 30
geri@@ 30
geschäfts 30
gle 30
grabbing 30
hör@@ 30
im@@ 30
iron 30
klasse 30
kleidungs@@ 30
kre@@ 30
kümmert 30
künst@@ 30
laun@@ 30
lobby 30
logo 30
loom 30
magazines 30
meet 30
merchandise 30
mid-@@ 30
mittagessen 30
monopoly 30
mop@@ 30
movie 30
nachdem 30
numerous 30
ob 30
official 30
ol 30
olo@@ 30
orange-@@ 30
pack@@ 30
pat@@ 30
person@@ 30
possibly 30
pun@@ 30
raises 30
rests 30
rädern 30
sau@@ 30
seiten 30
serve 30
sit@@ 30
sniffing 30
soda 30
spü@@ 30
tail 30
tal@@ 30
thin 30
ties 30
trip 30
trolley 30
trunk 30
u-bahn-@@ 30
umher 30
uti@@ 30
venue 30
verkauf 30
verti@@ 30
video@@ 30
war 30
wares 30
wat@@ 30
waterway 30
wie@@ 30
winterkleidung 30
wires 30
work@@ 30
world 30
yarn 30
ziel 30
zone 30
zwe@@ 30
älteres 30
ör@@ 30
a-@@ 29
adv@@ 29
alleyway 29
arcade 29
ation@@ 29
aufblasbaren 29
aufen 29
autumn 29
badewanne 29
bau 29
besu@@ 29
bly 29
boulder 29
braunes 29
break@@ 29
breakdancing 29
brillen 29
buffet 29
bull@@ 29
cakes 29
casual 29
chewing 29
cola 29
collie 29
crossed 29
crouches 29
dding 29
deli@@ 29
demonstra@@ 29
design 29
dia@@ 29
digen 29
directing 29
dreck 29
ele@@ 29
ente 29
enter@@ 29
ents 29
foot@@ 29
forward 29
freund 29
geb@@ 29
genden 29
gesäumten 29
goat 29
gol@@ 29
halle 29
hell 29
hiding 29
ily 29
jenga 29
konzentriert 29
kro@@ 29
kur@@ 29
köche 29
lang@@ 29
lassen 29
lecture 29
ler@@ 29
lounge 29
make@@ 29
motorized 29
multi@@ 29
mänteln 29
ob@@ 29
ohren 29
ones 29
paperwork 29
parachute 29
passenger 29
personengruppe 29
pict@@ 29
piste 29
power 29
präsentiert 29
rally 29
rapids 29
rechten 29
rennauto 29
rennwagen 29
sbe@@ 29
schlagzeuger 29
scre@@ 29
sele@@ 29
shades 29
sitzenden 29
skil@@ 29
skul@@ 29
sno@@ 29
sorting 29
spaziergang 29
ssage 29
stiefel 29
str@@ 29
stroke 29
tack@@ 29
teammate 29
teen 29
tig 29
tiger 29
tted 29
ured 29
val 29
violine 29
waldgebiet 29
walmart 29
white-@@ 29
wischt 29
11 28
achterbahn 28
act 28
alling 28
also 28
appe@@ 28
artwork 28
asiatin 28
atta@@ 28
bahnsteig 28
beanie 28
besteht 28
bewundert 28
blazer 28
bon@@ 28
bouncing 28
br@@ 28
burning 28
calm 28
chan@@ 28
chatting 28
cleans 28
comes 28
crosses 28
cuts 28
cy 28
decken 28
deln 28
dieses 28
drib@@ 28
einkaufszentrum 28
elle 28
emer@@ 28
entering 28
esel 28
ette 28
etten 28
fallschirm 28
farbenfro@@ 28
feath@@ 28
fern@@ 28
fetti 28
flöte 28
fran@@ 28
fußballfeld 28
füßen 28
gruppen 28
hammering 28
hear@@ 28
hinab 28
histor@@ 28
hits 28
hop@@ 28
hotdogs 28
hydrant 28
hän@@ 28
hö@@ 28
hölzernen 28
ite@@ 28
kamera@@ 28
karten 28
kayaks 28
kerzen 28
kli@@ 28
knit 28
kurs 28
können 28
lar@@ 28
leaf 28
leotard 28
lers 28
ll@@ 28
maschinen 28
mittel@@ 28
mixer 28
mountainbike 28
newspapers 28
nurses 28
oberfläche 28
off-@@ 28
packt 28
parkt 28
pft 28
portrait 28
posed 28
potato 28
produkte 28
professor 28
recei@@ 28
redheaded 28
rennfahrer 28
retrie@@ 28
roller-@@ 28
schaufenster@@ 28
schiff 28
schildern 28
schirmen 28
schlafen 28
schlitt@@ 28
schlä@@ 28
schnitzt 28
schule 28
schö@@ 28
schöne 28
sem@@ 28
serviert 28
shape 28
shing 28
shovels 28
skleidung 28
smaller 28
spanish 28
speeding 28
spring 28
stal@@ 28
stomach 28
straight 28
stöcke 28
tal 28
talent 28
termin@@ 28
traditioneller 28
transpor@@ 28
tricycle 28
trompete 28
tun@@ 28
turban 28
turnhalle 28
turquoise 28
tv 28
umpire 28
unk 28
used 28
verlässt 28
wan@@ 28
wasserflasche 28
waterfront 28
ways 28
werfer 28
wohnzimmer 28
yel@@ 28
zebra@@ 28
zel@@ 28
ziel@@ 28
zombi@@ 28
üben 28
abendessen 27
ages 27
aquarium 27
arch 27
bamboo 27
bea@@ 27
bell@@ 27
bibliothek 27
blankets 27
blättern 27
branches 27
brin@@ 27
brother 27
by-@@ 27
bär@@ 27
cage 27
casino 27
chalkboard 27
cheek 27
chts 27
computer@@ 27
contraption 27
converse 27
countryside 27
deck@@ 27
deckt 27
decora@@ 27
del 27
diner 27
drawn 27
drive 27
dru@@ 27
drückt 27
dusty 27
finishing 27
fliegen 27
floß 27
fur 27
gal@@ 27
gallery 27
gebaut 27
geräten 27
geschäftigen 27
gesichts@@ 27
glücklich 27
gy@@ 27
halb 27
han@@ 27
handschuh 27
headed 27
hellbraunen 27
hen 27
heu 27
hula-hoop 27
händchen 27
ic@@ 27
ies 27
indische 27
ini@@ 27
injured 27
iting 27
jemanden 27
ka 27
kalb 27
kau@@ 27
kegel 27
kochen 27
lampe 27
lasso 27
lat@@ 27
lebensmittel@@ 27
leit@@ 27
lernt 27
loo@@ 27
love 27
malen 27
mark 27
mau@@ 27
mid 27
mop 27
mountain@@ 27
my 27
numbers 27
näht 27
ong 27
ora@@ 27
patch 27
patro@@ 27
pers 27
pflü@@ 27
pillows 27
pinkfarbenem 27
pins 27
played 27
präsentation 27
pult 27
reinigen 27
rothaarige 27
roun@@ 27
rö@@ 27
schmuck 27
schmutzigen 27
schubkarre 27
schutzbrille 27
seilen 27
shadows 27
sitzender 27
skateboard-@@ 27
skyline 27
sledding 27
smokes 27
sneakers 27
socken 27
speaker 27
sst 27
stall 27
stat@@ 27
stepping 27
sty 27
surfers 27
surgery 27
tape 27
task 27
taucher 27
ticket 27
tights 27
tigt 27
tropical 27
tö@@ 27
vier@@ 27
vil@@ 27
vorne 27
vögel 27
wandbild 27
weap@@ 27
weit 27
wered 27
wings 27
wrap 27
wänden 27
zäh@@ 27
züge 27
9 26
acce@@ 26
adverti@@ 26
arbeitskleidung 26
auszu@@ 26
babies 26
bag@@ 26
baseballkappe 26
baseballmütze 26
baumes 26
beschäftigt 26
bietet 26
bleachers 26
blood 26
boote 26
broch@@ 26
bulldozer 26
but 26
bystanders 26
canvas 26
celebration 26
checkers 26
cial 26
computerbildschirm 26
creek 26
cti@@ 26
cul@@ 26
darunter 26
department 26
designs 26
displaying 26
dit@@ 26
dive 26
dot 26
dumpster 26
east 26
ed@@ 26
eglasses 26
eishockeyspieler 26
elmo 26
eltern 26
exam@@ 26
excit@@ 26
expl@@ 26
facility 26
farbener 26
farbigen 26
farmers 26
fashioned 26
fernglas 26
findet 26
finished 26
flu@@ 26
ford 26
füße 26
gardening 26
gathers 26
gelb-@@ 26
geschäfts@@ 26
gewässers 26
gläsern 26
graffiti@@ 26
grand 26
haariger 26
highway 26
iling 26
ines 26
jüngeren 26
kauert 26
kette 26
ky 26
laundromat 26
link 26
lips 26
lling 26
load 26
löffel 26
mann@@ 26
messer 26
mexican 26
mini@@ 26
motorrädern 26
mul@@ 26
mützen 26
nahaufnahme 26
neu@@ 26
o-@@ 26
oned 26
oring 26
overweight 26
own 26
ox@@ 26
p-@@ 26
padd@@ 26
painter 26
participate 26
pfahl 26
pfan@@ 26
pinata 26
pira@@ 26
platte 26
plo@@ 26
politi@@ 26
pony 26
pretty 26
printed 26
pt@@ 26
radio 26
record 26
rice 26
rist@@ 26
saal 26
scaffold 26
schaft 26
schaft@@ 26
schmetter@@ 26
schu@@ 26
schwach 26
schwenkt 26
sear@@ 26
seem 26
seni@@ 26
service 26
setzen 26
shoreline 26
signing 26
silbernen 26
sive 26
sn@@ 26
snowshoes 26
sommer@@ 26
strange 26
stump 26
surf@@ 26
swor@@ 26
team@@ 26
tem@@ 26
ther 26
thers 26
tired 26
toddlers 26
turnerin 26
tying 26
umhang 26
washer 26
watched 26
weitere 26
wissenschaft@@ 26
zeitschrift 26
zes 26
aben@@ 25
akusti@@ 25
amongst 25
artists 25
arzt 25
ations 25
atm 25
ausgestreckten 25
baby@@ 25
backdrop 25
beln 25
bern 25
bet@@ 25
beutel 25
bewegung 25
bild@@ 25
boarder 25
bowlingbahn 25
bra 25
bru@@ 25
brust 25
bus@@ 25
butterfly 25
bä@@ 25
büro@@ 25
cab 25
check 25
chs 25
closely 25
cop 25
coun@@ 25
cri@@ 25
dig 25
egg 25
employees 25
en-@@ 25
envi@@ 25
ep@@ 25
fashion 25
feuert 25
fitness@@ 25
flüssigkeit 25
focused 25
forehead 25
frisch 25
fting 25
gei@@ 25
gelände 25
geschen@@ 25
gewand 25
gewehr 25
greyho@@ 25
haltung 25
heißen 25
hike 25
hilfe 25
hills 25
hum@@ 25
ich 25
images 25
iti@@ 25
jagen 25
kaffee@@ 25
kameras 25
kapuzenpulli 25
kari@@ 25
karussell 25
kaut 25
kiosk 25
knife 25
lange 25
leder@@ 25
ley 25
liert 25
lighting 25
listen 25
ll 25
lon@@ 25
los 25
maintenance 25
med 25
messy 25
most 25
motocross-@@ 25
musikinstrumente 25
nah 25
nee@@ 25
netze 25
ney 25
nur@@ 25
odles 25
offenem 25
ohr@@ 25
ow@@ 25
pflan@@ 25
picknicktisch 25
popcorn 25
prepared 25
probiert 25
pum@@ 25
pumpkin 25
racers 25
raincoat 25
remo@@ 25
riesige 25
row@@ 25
rows 25
sawing 25
scape 25
schein@@ 25
shar@@ 25
sicherheit@@ 25
sideways 25
soap 25
some@@ 25
spielerin 25
spielzeug-@@ 25
spotted 25
sprayed 25
sprungbrett 25
sprüh@@ 25
ssive 25
stangen 25
stares 25
stilts 25
strugg@@ 25
supplies 25
symbol 25
ta 25
tching 25
terrier 25
thedra@@ 25
thumb 25
toi@@ 25
ton 25
tour 25
transportation 25
tug@@ 25
tutu 25
underwear 25
usa 25
verschieden@@ 25
vol@@ 25
volleyball@@ 25
vollführt 25
wart 25
wind 25
wirbelt 25
wohner 25
wrestle 25
wä@@ 25
zement 25
ziegelmauer 25
zug@@ 25
äl@@ 25
00@@ 24
african-american 24
basket@@ 24
bb@@ 24
blows 24
blü@@ 24
bor 24
chee@@ 24
cheese 24
cherry 24
cho@@ 24
ckets 24
ckter 24
communi@@ 24
condu@@ 24
covers 24
ctor 24
dal@@ 24
decorations 24
down@@ 24
dragging 24
eingezäunten 24
erer 24
far 24
feiern 24
feuerwehrmänner 24
fischen 24
flips 24
gele@@ 24
green@@ 24
griff 24
halloween 24
ham 24
handrail 24
harve@@ 24
helicopter 24
hochzeit 24
hä@@ 24
häu@@ 24
if 24
ining 24
interagi@@ 24
jumper 24
kalten 24
kilt 24
known 24
lanterns 24
leads 24
leinwand 24
leitet 24
liege@@ 24
lle 24
lusti@@ 24
marine@@ 24
motorräder 24
mower 24
napping 24
nel 24
newly 24
ols 24
ozeans 24
papiere 24
patterned 24
pin 24
polo@@ 24
pots 24
protesters 24
races 24
range 24
rasi@@ 24
regenschirmen 24
relax 24
repor@@ 24
restaurant@@ 24
rifle 24
roadside 24
ron@@ 24
ronment 24
rooftop 24
sanddüne 24
sat@@ 24
schafe 24
schnitt 24
seagul@@ 24
sells 24
shakes 24
skills 24
sking 24
sla@@ 24
slightly 24
spani@@ 24
sparring 24
sprung@@ 24
ssel 24
stand@@ 24
stark 24
statt 24
stei@@ 24
steilen 24
stöcken 24
sunlight 24
system 24
säcke 24
tackelt 24
teil@@ 24
tten 24
ual 24
unterrichtet 24
vorbeigehen 24
wakeboard 24
waschen 24
who@@ 24
workout 24
workshop 24
xes 24
ya@@ 24
acrobatic 23
acting 23
afrikanische 23
ag@@ 23
america 23
amidst 23
angelrute 23
anlage 23
arran@@ 23
arri@@ 23
backstein@@ 23
barbe@@ 23
basketballspiel 23
bathtub 23
bauch 23
beine 23
bend 23
bers 23
bier@@ 23
bikinis 23
bit 23
black-haired 23
blondem 23
booten 23
booths 23
boss 23
braunhaarige 23
bunte 23
bän@@ 23
camera@@ 23
camp 23
cann@@ 23
canoes 23
cast 23
cer@@ 23
chocolate 23
circular 23
ck-@@ 23
coa@@ 23
colum@@ 23
congreg@@ 23
cyc@@ 23
draw 23
drei@@ 23
druck 23
dunk 23
dunkelhaarige 23
einrad 23
elev@@ 23
erung 23
es@@ 23
exerci@@ 23
fass 23
film@@ 23
filming 23
fische 23
fit@@ 23
floo@@ 23
ften 23
för@@ 23
gelt 23
geschmin@@ 23
gesprungen 23
gipfel 23
grab 23
gradu@@ 23
graph@@ 23
halb@@ 23
haus@@ 23
hellhäutiger 23
hen@@ 23
hil@@ 23
hinterhof 23
hispani@@ 23
hochzeits@@ 23
hula-hoop-reifen 23
ihres 23
jubelt 23
kaya@@ 23
kies 23
kir@@ 23
kne@@ 23
koch@@ 23
kopfhörern 23
krie@@ 23
kunststücke 23
kunstwerk 23
larger 23
laster 23
leaf@@ 23
letter@@ 23
listens 23
long-sleeve 23
ma 23
marker 23
marktplatz 23
miniat@@ 23
mischt 23
monkey 23
mountainbiker 23
mug 23
opy 23
oren 23
ously 23
passersby 23
passt 23
pigtails 23
placed 23
plastiktüte 23
ple 23
pow@@ 23
products 23
punch 23
punching 23
quickly 23
recording 23
rennens 23
roo@@ 23
sailboat 23
scal@@ 23
schmutz 23
schmutzi@@ 23
schne@@ 23
schwert 23
score 23
section 23
similar 23
sle@@ 23
snacks 23
spielern 23
sportveranstaltung 23
stab 23
state 23
steg 23
sten@@ 23
still 23
stir@@ 23
storm 23
stunts 23
swimmingpool 23
tablett 23
tauben 23
tiny 23
tournament 23
trashcan 23
treat 23
tter 23
turm 23
turner 23
tä@@ 23
u-bahn-station 23
ue 23
unique 23
versch@@ 23
wassers 23
weihnachtsmann 23
welpe 23
wig 23
win 23
wur@@ 23
xi@@ 23
zens 23
zo@@ 23
ärmellosen 23
# 22
-schild 22
\ 22
accompani@@ 22
ak@@ 22
angehalten 22
appar@@ 22
aprons 22
asphalt 22
augen@@ 22
baseballspiel 22
batman 22
bett@@ 22
blond@@ 22
brenn@@ 22
busine@@ 22
bürger@@ 22
camels 22
canal 22
cases 22
cel@@ 22
challen@@ 22
chie@@ 22
chips 22
chopsticks 22
classic 22
cleaner 22
cloud 22
cockpit 22
complete 22
cover 22
crates 22
crayons 22
create 22
crow@@ 22
cute 22
deci@@ 22
deer 22
dekorati@@ 22
deli 22
descent 22
diert 22
direkt 22
eiscreme 22
elefanten 22
enga@@ 22
entre@@ 22
fahrgeschäft 22
fahrrads 22
feld@@ 22
follows 22
fountains 22
french 22
frozen 22
fte 22
furry 22
gegner 22
gemüse@@ 22
geschäf@@ 22
gestreiftes 22
glei@@ 22
glück@@ 22
hamburger 22
handed 22
hart 22
heißluftballon 22
highchair 22
hr 22
human 22
händler 22
icy 22
ility 22
incline 22
inclu@@ 22
iner 22
ir 22
ischen 22
itä@@ 22
japan 22
karten@@ 22
keit 22
kis 22
klatscht 22
knie@@ 22
knien 22
kugel 22
köpfen 22
kör@@ 22
körben 22
körper 22
körper@@ 22
landet 22
late 22
lehnen 22
lens 22
less 22
lächelndes 22
maler 22
mast 22
menu 22
minivan 22
mittag 22
mobil@@ 22
morning 22
musli@@ 22
news 22
notebook 22
od 22
ofen 22
on-@@ 22
oran@@ 22
paddles 22
pads 22
palmen 22
past@@ 22
pattern 22
pencil 22
pfe 22
pflanze 22
planscht 22
pop 22
proje@@ 22
put@@ 22
quad 22
rav@@ 22
regal 22
reifenschaukel 22
reparat@@ 22
rot-weißen 22
ry-@@ 22
rü@@ 22
sam 22
schei@@ 22
schleift 22
schrei@@ 22
schwarz-weißen 22
schwer@@ 22
seattle 22
second 22
serves 22
shoo@@ 22
sk 22
speisen 22
sperr@@ 22
spider@@ 22
spongebo@@ 22
stare 22
stelle 22
stops 22
strauß 22
ständer 22
sängerin 22
tackled 22
tation 22
tha@@ 22
thin@@ 22
thing 22
tiert 22
tiled 22
toilet@@ 22
torhüter 22
touch 22
trans@@ 22
träger 22
two-@@ 22
uhr 22
vacuuming 22
valley 22
versammlung 22
w-@@ 22
wagens 22
wait@@ 22
waiter 22
weihnachts@@ 22
weiß@@ 22
wett@@ 22
wheeler 22
zeit@@ 22
ün@@ 22
-colored 21
7 21
accident 21
acti@@ 21
afrikanischer 21
angezogen 21
anlegestelle 21
apart 21
approaches 21
attra@@ 21
aufs 21
auslage 21
aussicht 21
ballerin@@ 21
bath@@ 21
bchen 21
beginnt 21
belongings 21
bir@@ 21
blue-@@ 21
bongo 21
boxen 21
brass 21
british 21
buck@@ 21
buil@@ 21
buried 21
c-@@ 21
carefully 21
celebrate 21
cigar@@ 21
citi@@ 21
cki@@ 21
cle 21
coca-@@ 21
color@@ 21
conductor 21
ctions 21
cy@@ 21
dach@@ 21
decorative 21
dex 21
digital 21
dle 21
driveway 21
drängt 21
eller 21
fedora 21
ff 21
figuren 21
fisch@@ 21
foods 21
fru@@ 21
gelehnt 21
geschäften 21
gestikuliert 21
getränken 21
gged 21
gkeiten 21
gle@@ 21
greifen 21
grillen 21
hafen@@ 21
hat@@ 21
herren 21
herum@@ 21
herunter@@ 21
hind 21
hit@@ 21
hochge@@ 21
hocke 21
hrt 21
ils 21
inning 21
jahrmarkt 21
japan@@ 21
jeansjacke 21
joggen 21
jogger 21
kahlköpfiger 21
kal@@ 21
kasten 21
ken@@ 21
khakis 21
knees 21
kni@@ 21
komplett 21
la 21
legos 21
licking 21
lie 21
liegenden 21
lighted 21
luft@@ 21
man-@@ 21
mas 21
masks 21
mate 21
meadow 21
measuring 21
menschengruppe 21
mischer 21
mitglied 21
mix@@ 21
mou@@ 21
mt 21
nat@@ 21
noti@@ 21
observes 21
offi@@ 21
olympi@@ 21
olympic 21
olympischen 21
open-@@ 21
paare 21
package 21
pathway 21
pferde@@ 21
pinsel 21
playfully 21
pocket 21
ponch@@ 21
poodle 21
positi@@ 21
prin@@ 21
promenade 21
pudel 21
radfahr@@ 21
rauch 21
religious 21
rie@@ 21
robo@@ 21
rot@@ 21
röcken 21
s. 21
sandstrand 21
satz 21
saxoph@@ 21
scar@@ 21
scent 21
schaufeln 21
schna@@ 21
schnei@@ 21
schnurrbart 21
schnüffelt 21
schulkinder 21
segel@@ 21
shiel@@ 21
shout@@ 21
sicht 21
spat@@ 21
speak 21
spect@@ 21
spiele 21
spot 21
stati@@ 21
steinigen 21
stil 21
stirnband 21
stle 21
stoop 21
strohhut 21
stufe 21
stücke 21
sure 21
synchronized 21
süßigkeiten 21
tier@@ 21
tische 21
touches 21
treibt 21
tripod 21
trock@@ 21
trägerhemd 21
tton 21
tuni@@ 21
ture 21
tut 21
types 21
uble 21
ultimate 21
unusual 21
upset 21
uren 21
us@@ 21
vending 21
victory 21
vintage 21
vorbereitet 21
walked 21
watet 21
webt 21
well-@@ 21
wunder@@ 21
wärtssal@@ 21
wü@@ 21
zement@@ 21
zeugen 21
zigar@@ 21
10 20
aber 20
activ@@ 20
afri@@ 20
angels 20
arrow 20
ausgestellt 20
bandana 20
baseman 20
beamte 20
bearbeitet 20
bespritzt 20
betet 20
bicycling 20
blur@@ 20
braun-@@ 20
bridesmaids 20
built 20
bul@@ 20
bush 20
busses 20
camp@@ 20
campfire 20
carri@@ 20
cheer 20
cheerleader@@ 20
ckigen 20
clar@@ 20
concentra@@ 20
cons@@ 20
consisting 20
daran 20
dicht 20
displayed 20
dives 20
dor@@ 20
downhill 20
ducks 20
dunking 20
earphones 20
einzelner 20
einzu@@ 20
erhält 20
ese 20
establishment 20
fahrzeugs 20
fair@@ 20
ffel 20
figures 20
flannel 20
flügel 20
foam 20
foliage 20
führung 20
gefüllt 20
geldbörse 20
genommen 20
gent 20
gera@@ 20
gest@@ 20
graffitis 20
grasp@@ 20
gray-haired 20
gürtel 20
haariges 20
half@@ 20
hea@@ 20
heit 20
hinderni@@ 20
hn 20
hocker 20
holi@@ 20
holzbank 20
ieren 20
inform@@ 20
interesting 20
involving 20
ipod 20
kabine 20
kamel@@ 20
kasse 20
ke-@@ 20
kettensäge 20
kran 20
kreide 20
laboratory 20
langhaariger 20
lebensmittelgeschäft 20
lem@@ 20
life@@ 20
lled 20
looked 20
lou@@ 20
lum@@ 20
meeres@@ 20
mick@@ 20
mitt@@ 20
mix 20
modell@@ 20
motion 20
mouths 20
mowing 20
nack@@ 20
nails 20
näh@@ 20
obser@@ 20
obststand 20
packing 20
photographers 20
poor 20
prie@@ 20
prote@@ 20
protestiert 20
pub 20
purses 20
puzzle 20
pärchen 20
rafts 20
refle@@ 20
relea@@ 20
rückwärts 20
sack@@ 20
san 20
saris 20
scheinen 20
schneeanzug 20
schnell@@ 20
schri@@ 20
schwarz-weiß 20
seafood 20
seiten@@ 20
series 20
shadow 20
share 20
shift 20
side@@ 20
single 20
skateboard@@ 20
snap 20
splashed 20
spotlight 20
spra@@ 20
sprecher 20
sse@@ 20
ssions 20
stacked 20
staff 20
stant 20
steu@@ 20
stin 20
straßenhändler 20
straßenverkäufer 20
suit@@ 20
surgical 20
suspenders 20
tat@@ 20
tend 20
tips 20
trains 20
trench 20
tribal 20
tt 20
ttern 20
tüte 20
tüten 20
underground 20
untersuchen 20
upward 20
ussion 20
utsche 20
vau@@ 20
videospiel 20
violett 20
vorbeifährt 20
vorn 20
wake@@ 20
wald@@ 20
waldweg 20
wandern 20
watermelons 20
weigh@@ 20
werkstatt 20
whe@@ 20
wheeled 20
wir 20
wrestlers 20
wunderschönen 20
xylophone 20
zahl 20
zahn@@ 20
zeichnung 20
zielt 20
zieren 20
zoo 20
zuschauermenge 20
amp@@ 19
ands 19
anhat 19
axt 19
backsteingebäude 19
badminton 19
balances 19
ballet@@ 19
barefooted 19
baren 19
bartender 19
bear@@ 19
begins 19
beleuchtung 19
bewegen 19
bindet 19
boogie 19
bordstein 19
brandung 19
brettspiel 19
bush@@ 19
canadian 19
cari@@ 19
carrier 19
cellphones 19
check@@ 19
chin 19
cigar 19
ckens 19
clu@@ 19
commercial 19
cooks 19
cover@@ 19
cowgirl 19
crashing 19
curly-haired 19
dessert 19
dinosau@@ 19
draped 19
edly 19
electri@@ 19
employee 19
ena@@ 19
entlang@@ 19
erreichen 19
essens@@ 19
explo@@ 19
fallschirm@@ 19
farbige 19
fels@@ 19
ffe 19
fier 19
flan@@ 19
flusses 19
football-@@ 19
fort 19
fußgänger@@ 19
gassi 19
gaze 19
geblümten 19
gelassen 19
gelände@@ 19
gericht 19
gesture 19
gestures 19
gitarren@@ 19
graue 19
grill@@ 19
haired 19
halt 19
hardwood 19
hol 19
holen 19
häusern 19
hügel@@ 19
ige 19
imp@@ 19
indischer 19
iter 19
jeans@@ 19
joy 19
jüngere 19
karton 19
kinds 19
klassenraum 19
kly 19
kreuz 19
labeled 19
lachend 19
lage 19
lager@@ 19
las 19
last@@ 19
lets 19
ling@@ 19
lion 19
mani@@ 19
mem@@ 19
miami 19
mil@@ 19
mischen 19
mmer 19
monk 19
much 19
musi@@ 19
nass 19
necklaces 19
obst@@ 19
oil 19
ope 19
orangefarbene 19
ordering 19
paddeln 19
papp@@ 19
parent 19
patrons 19
pel 19
pistole 19
policemen 19
pon@@ 19
pos@@ 19
ppy 19
puppen 19
puppet 19
qui@@ 19
rai@@ 19
rate 19
recor@@ 19
reg@@ 19
renaiss@@ 19
river@@ 19
rodeo-@@ 19
rollerskates 19
rosafarbenem 19
rub@@ 19
rucksäcken 19
rugs 19
runter 19
rückseite 19
sad 19
sca@@ 19
sche@@ 19
schienen 19
schlei@@ 19
schlu@@ 19
schwester 19
schwimmweste 19
sculptures 19
semi-@@ 19
senior 19
shower 19
skinny 19
sl@@ 19
snor@@ 19
spre@@ 19
squeezing 19
ssenen 19
stap@@ 19
statu@@ 19
stehende 19
stellung 19
stie@@ 19
stirn 19
streicht 19
stry 19
stuff 19
surroun@@ 19
sweatshirts 19
table@@ 19
tar@@ 19
taxis 19
teilweise 19
temple 19
tery 19
tete 19
tight 19
tol@@ 19
toothbrush 19
tug-of-war 19
tum@@ 19
turkey 19
ty@@ 19
typing 19
tü@@ 19
urein@@ 19
usband 19
va 19
vio@@ 19
violettem 19
volkswagen 19
wange 19
warming 19
waterskiing 19
wegs 19
wendet 19
werbe@@ 19
wns 19
workman 19
wr@@ 19
wär@@ 19
zeug@@ 19
ähnlichen 19
ade 18
alt@@ 18
altes 18
amüsieren 18
angle 18
arbeits@@ 18
attractive 18
aufgestellt 18
aufmerksam 18
badezimmer 18
bands 18
barre@@ 18
baseballschläger 18
bauarbeiten 18
bauernmarkt 18
belts 18
berry 18
bert 18
besucht 18
beteil@@ 18
billard 18
blau-weißen 18
blau@@ 18
bled 18
bmx-fahrer 18
boot@@ 18
bootes 18
breakdance 18
brushes 18
bst 18
bundle 18
bunge@@ 18
bö@@ 18
candle 18
casually 18
cen@@ 18
cheerleading 18
cker@@ 18
cl@@ 18
clouds 18
collared 18
computern 18
crowds 18
daneben 18
darkened 18
dosen 18
dreh@@ 18
du 18
eds 18
ee 18
eisenbahn@@ 18
eled 18
elnden 18
emp@@ 18
engen 18
enten 18
entgegen 18
erklimmt 18
ertes 18
eting 18
fabrik 18
fat 18
fischer@@ 18
fisher@@ 18
flower@@ 18
foc@@ 18
fore@@ 18
friedens@@ 18
frisur 18
fron@@ 18
fts 18
fänger 18
gefallen 18
gefüllten 18
geländemotorradfahrer 18
gende 18
gent@@ 18
geschi@@ 18
geschla@@ 18
geöffnet 18
gitarren 18
gleichzeitig 18
gläser 18
gne 18
grau@@ 18
grimasse 18
gäste 18
ha 18
ham@@ 18
hammock 18
heavily 18
hier 18
hle 18
hohe 18
horse@@ 18
hren@@ 18
hüpf@@ 18
i-@@ 18
identi@@ 18
illumin@@ 18
intere@@ 18
interess@@ 18
itali@@ 18
itet 18
ität 18
kariertem 18
key@@ 18
ki 18
kings 18
kitt@@ 18
kleinkinder 18
klettergerüst 18
kun@@ 18
kurz@@ 18
laternen 18
league 18
leckt 18
leu@@ 18
lic 18
lively 18
loa@@ 18
lor 18
lädt 18
mag@@ 18
main 18
marble 18
mess 18
midst 18
mikrof@@ 18
mithilfe 18
motorroller 18
mä@@ 18
nation@@ 18
navi@@ 18
neue 18
nine 18
noch 18
notes 18
nun 18
odle 18
pad 18
pain 18
passagiere 18
passiert 18
pay 18
pedal 18
pet 18
picket 18
plüsch@@ 18
press@@ 18
protect 18
purchase 18
putzen 18
pyramid 18
radfahrern 18
rails 18
raz@@ 18
reception 18
ringer 18
riot 18
rut@@ 18
sail 18
schlafanzug 18
schmi@@ 18
schneeh@@ 18
schnit@@ 18
schnur 18
schä@@ 18
scientist 18
scopes 18
scrubs 18
shelf 18
shing@@ 18
shiny 18
short-haired 18
sicherheits@@ 18
smit@@ 18
snowboards 18
sooners 18
sparkl@@ 18
speise@@ 18
sper@@ 18
spie@@ 18
splashes 18
spritzen 18
st. 18
stahl@@ 18
starbucks 18
stea@@ 18
strapped 18
streich@@ 18
striking 18
stroh@@ 18
stuck 18
stäbchen 18
städtische 18
stän@@ 18
support 18
surfen 18
swan 18
sweeps 18
säge 18
säugling 18
tails 18
teilnehmer 18
text 18
tie@@ 18
tief@@ 18
traditionellen 18
train@@ 18
tran@@ 18
transit 18
tree-@@ 18
tress 18
tro 18
trotting 18
tun 18
tzt 18
ukulele 18
una 18
unterricht 18
vering 18
verschneite 18
verteilt 18
videota@@ 18
volunte@@ 18
vorrichtung 18
ware 18
waschbecken 18
wasserrutsche 18
wettrennen 18
zubereitet 18
öl@@ 18
abends 17
able 17
ach@@ 17
afternoon 17
akrobati@@ 17
aktiv@@ 17
amerikanischer 17
ant@@ 17
anzeige 17
arrangement 17
asia 17
ass@@ 17
aufgeregt 17
auge 17
bagger 17
bam@@ 17
banners 17
begutachtet 17
beigefarbenen 17
berühren 17
bestehende 17
blasen@@ 17
blocken 17
bluejeans 17
bodysuit 17
brü@@ 17
bunter 17
büschen 17
canyon 17
chel@@ 17
chinesi@@ 17
chinesische 17
chirur@@ 17
circus 17
cluttered 17
companion 17
completed 17
conne@@ 17
dekoriert 17
displays 17
dly 17
dor 17
drinnen 17
dritte 17
dunkelblauen 17
dämmerung 17
eier 17
eingeschlafen 17
einhei@@ 17
elektri@@ 17
ends 17
entspannen 17
ep 17
erende 17
ethni@@ 17
european 17
extre@@ 17
farb@@ 17
fecht@@ 17
feder@@ 17
festi@@ 17
feuerwehrauto 17
ffe@@ 17
fields 17
film 17
fir@@ 17
fish@@ 17
flei@@ 17
flugzeugs 17
flügeln 17
free@@ 17
fröh@@ 17
frü@@ 17
fußgängerüberweg 17
gehende 17
gelb@@ 17
gend 17
gern 17
gesichtsbemalung 17
gesp@@ 17
ghts 17
gie 17
girl@@ 17
golden@@ 17
grabs 17
grund@@ 17
grü@@ 17
haarige 17
handle 17
harmonica 17
hawaiian 17
headdress 17
heller 17
high@@ 17
hinein 17
homemade 17
horizon 17
inder 17
industrial 17
inn@@ 17
jack 17
jeder 17
jo 17
judges 17
kapuze 17
kapuzenpullover 17
keeper 17
khaki@@ 17
kimonos 17
klappstuhl 17
klar@@ 17
kol@@ 17
konferenz 17
krabbelt 17
ktion@@ 17
labra@@ 17
laden@@ 17
lay@@ 17
leitung 17
leopard 17
lern 17
leucht@@ 17
ligen 17
liqu@@ 17
loaded 17
maid 17
mannequin 17
mari@@ 17
markt@@ 17
mascot 17
mcdonalds 17
mei@@ 17
monitors 17
mountainous 17
muzzle 17
muzzled 17
müllcontainer 17
mülltonne 17
nachbar@@ 17
nacht@@ 17
neh@@ 17
neugeborenes 17
nieder 17
objekte 17
of@@ 17
offenbar 17
ohr 17
open@@ 17
ot 17
packed 17
pale 17
pfanne 17
pfer@@ 17
pfo@@ 17
pigeon 17
plain 17
ponytail 17
presents 17
product 17
profi@@ 17
progra@@ 17
prun@@ 17
railings 17
rasen@@ 17
really 17
return 17
ribb@@ 17
road@@ 17
ruhigen 17
rührt 17
sail@@ 17
satz@@ 17
sausa@@ 17
schach 17
schar@@ 17
schat@@ 17
schaukeln 17
schlag@@ 17
schlauchboot 17
schlendert 17
schlü@@ 17
schreiben 17
schutz 17
schwarz-brauner 17
schwestern 17
schü@@ 17
seh@@ 17
selbst 17
servi@@ 17
sessel 17
setz@@ 17
shirted 17
shoe@@ 17
sicherheitsweste 17
sieg 17
skateboarders 17
skydiving 17
slam 17
sleep 17
snowboardfahrer 17
solo 17
sonnenschirm 17
spielkleidung 17
spir@@ 17
sportkleidung 17
ss-@@ 17
stol@@ 17
ston@@ 17
stringed 17
suchen 17
sunbathing 17
suv 17
swimsuits 17
säule 17
säulen 17
tage 17
tech@@ 17
teile 17
telefon@@ 17
temp@@ 17
than 17
tic 17
tomaten 17
trainieren 17
trainingsanzug 17
trophy 17
tätowi@@ 17
töpfer@@ 17
türen 17
unhappy 17
unterschied@@ 17
unterwäsche 17
vacuum 17
variety 17
vege@@ 17
verk@@ 17
verkaufsstand 17
verlassen 17
versteckt 17
vorbeigeht 17
wash 17
wea@@ 17
webstuhl 17
weihna@@ 17
wilderness 17
woodland 17
xe 17
yama@@ 17
ysi@@ 17
ziegel 17
zucker@@ 17
zuge@@ 17
zz@@ 17
ärz@@ 17
-covered 16
20@@ 16
abgebildet 16
ales 16
alls 16
almost 16
amount 16
anhänger 16
appro@@ 16
arabi@@ 16
asi@@ 16
ately 16
ath@@ 16
att@@ 16
aufnahme 16
barren 16
base@@ 16
bedroom 16
begleitet 16
bela@@ 16
bereit@@ 16
beret 16
besitz@@ 16
bewölkten 16
bowling@@ 16
bricht 16
burg 16
bändern 16
bücher@@ 16
bühnen@@ 16
bündel 16
cade 16
camping@@ 16
capped 16
champa@@ 16
checks 16
chemi@@ 16
chil@@ 16
ckelt 16
columns 16
competiti@@ 16
consi@@ 16
containing 16
ctive 16
demonstranten 16
denti@@ 16
deser@@ 16
diri@@ 16
dreirad 16
dribbelt 16
druck@@ 16
dung 16
dunkelhaariger 16
earth 16
einkäufer 16
elabo@@ 16
erhobenen 16
erklimmen 16
essensstand 16
every@@ 16
exhi@@ 16
facial 16
farbene 16
felsk@@ 16
fernseher 16
feu@@ 16
fingern 16
fischernetz 16
fit 16
floats 16
followed 16
forested 16
formt 16
freizeitpark 16
freude 16
frisbeescheibe 16
förmigen 16
gan 16
geburtstag@@ 16
gehol@@ 16
gelen@@ 16
gemein@@ 16
gender 16
geschäftskleidung 16
gesellschaft 16
gewickelt 16
golfball 16
gon 16
gown 16
grasfläche 16
grau-@@ 16
grills 16
grimassen 16
gru@@ 16
grö@@ 16
hafen 16
halskette 16
heiß@@ 16
hero 16
herr@@ 16
hnen 16
hot@@ 16
hula-ho@@ 16
hunder@@ 16
ig 16
ight 16
indem 16
india 16
infla@@ 16
information 16
island 16
jubeln 16
jump@@ 16
kajakfahrer 16
kartoff@@ 16
kisses 16
kitchena@@ 16
konstruktion 16
kräfte 16
köpfige 16
kühl@@ 16
kürbis 16
legged 16
leicht 16
lifts 16
ligh@@ 16
lim@@ 16
live@@ 16
lk@@ 16
lung 16
län@@ 16
löschen 16
marschieren 16
mascara 16
maschendrahtzaun 16
matra@@ 16
maulkorb 16
medium 16
medizini@@ 16
mega@@ 16
meter 16
misch@@ 16
mmen 16
motorhaube 16
motorrad@@ 16
mounted 16
murky 16
muscular 16
mön@@ 16
na 16
nachricht 16
night@@ 16
nin@@ 16
noten@@ 16
nächsten 16
obama 16
oberen 16
oklaho@@ 16
om 16
orche@@ 16
ord@@ 16
ore@@ 16
papa 16
parallel 16
partici@@ 16
participat@@ 16
passenden 16
patienten 16
pee@@ 16
perlen 16
pers@@ 16
pfadfinder 16
pfen 16
pflasterstraße 16
picknick@@ 16
pipes 16
pirate 16
practices 16
process 16
projector 16
punkt 16
quet 16
quiet 16
rag 16
re 16
redhead 16
refer@@ 16
reflection 16
regenmantel 16
ren 16
rett@@ 16
rettung@@ 16
rettungswesten 16
rise 16
rollen 16
rollerskat@@ 16
ruhen 16
rush 16
saiten@@ 16
sandburg 16
sandigen 16
scenic 16
scher@@ 16
schieben 16
schlaf@@ 16
schwarzwei@@ 16
schür@@ 16
scoo@@ 16
scope 16
seating 16
sements 16
servieren 16
shaggy 16
shake 16
sie@@ 16
ske@@ 16
sky@@ 16
social 16
sociali@@ 16
softball@@ 16
spaziert 16
spee@@ 16
spei@@ 16
spielplatz@@ 16
sportwagen 16
ssel@@ 16
starren 16
stores 16
strickmütze 16
striert 16
strings 16
stürzt 16
sung 16
swagen 16
sz@@ 16
sü@@ 16
tarp 16
tennisspielerin 16
teten 16
tisches 16
tracksuit 16
tribüne 16
tur 16
turnier 16
tuxe@@ 16
university 16
upwards 16
us-@@ 16
verdeckt 16
verse 16
verwenden 16
viel@@ 16
vorstellung 16
waffel 16
warehouse 16
warn@@ 16
waschsalon 16
waterski@@ 16
weight 16
weihnachtsmann@@ 16
wetter 16
wippe 16
wolke 16
wärts 16
year 16
zielen 16
zun@@ 16
zurück@@ 16
zusammenge@@ 16
zügen 16
ält 16
ät 16
&apos;t 15
abandoned 15
afro@@ 15
afroamerikaner 15
akustikgitarre 15
ammer 15
ants 15
apfel 15
ards 15
arme@@ 15
artigen 15
astro@@ 15
aufblasbare 15
aussehenden 15
automaten 15
badeho@@ 15
ballon@@ 15
bbing 15
beads 15
bedeck@@ 15
benen 15
betonwand 15
betrie@@ 15
bewegungen 15
bikini-@@ 15
bilden 15
blau-gelben 15
blumenmuster 15
blätter@@ 15
bmx-@@ 15
boo@@ 15
brauen 15
braun-schwarzer 15
braun@@ 15
bruder 15
bullen@@ 15
bückt 15
celebra@@ 15
cer 15
chin@@ 15
cken@@ 15
clut@@ 15
compet@@ 15
cowboy@@ 15
cycles 15
darbietung 15
day@@ 15
dazu 15
diskutieren 15
dorf 15
dramati@@ 15
dudelsack 15
easel 15
ees 15
ehnt 15
eini@@ 15
einkaufstasche 15
ently 15
ereignis 15
erle@@ 15
europe 15
examines 15
experi@@ 15
fackel 15
farbenes 15
farbenfroher 15
featuring 15
festhält 15
finden 15
fliegenden 15
formen 15
freizeit@@ 15
freun@@ 15
freundin 15
friseur 15
früh@@ 15
fur@@ 15
fußballmannschaft 15
gage 15
gas@@ 15
gat@@ 15
gebeugt 15
geo@@ 15
gerä@@ 15
gescho@@ 15
geschrie@@ 15
gesichtern 15
gesäum@@ 15
gew@@ 15
gewändern 15
gin@@ 15
gitarristen 15
glatzköpfiger 15
gleichen 15
gress 15
gur@@ 15
haarigen 15
hallen@@ 15
herab 15
herbst 15
hindurch 15
holzboden 15
ilt 15
in-@@ 15
innenstadt 15
inner@@ 15
inspects 15
ites 15
iz@@ 15
jean@@ 15
jug@@ 15
jugendlichen 15
jun@@ 15
kapuzen@@ 15
keln 15
knee-@@ 15
ko 15
kommuni@@ 15
komp@@ 15
konzer@@ 15
kratzt 15
kunststoff@@ 15
kunstwerke 15
käfig 15
kür@@ 15
lagerfeuer 15
lass@@ 15
last 15
leb@@ 15
lieferwagen 15
linge 15
lings 15
ly-@@ 15
ländlichen 15
mach@@ 15
marked 15
medieval 15
menschen@@ 15
mexikani@@ 15
micro@@ 15
mmt 15
moder@@ 15
modi@@ 15
moo@@ 15
newlywed 15
nie@@ 15
op-@@ 15
perücke 15
places 15
pointed 15
pok@@ 15
pool@@ 15
pops 15
power@@ 15
prints 15
projek@@ 15
rande 15
red-@@ 15
reifen@@ 15
reihen 15
reit@@ 15
richtungen 15
ridor 15
rollerbla@@ 15
rollers 15
ros@@ 15
ruck@@ 15
rücksitz 15
sai@@ 15
samen 15
schafts@@ 15
schale 15
schau 15
scheinbar 15
schie@@ 15
schlagmann 15
schutzausrüstung 15
schürzen 15
sci@@ 15
segelboot 15
shawl 15
silhouetted 15
sleeves 15
soa@@ 15
spielerisch 15
sprays 15
stars 15
staub 15
stimm@@ 15
storte 15
straßenmusiker 15
stream@@ 15
stützt 15
superman 15
supermarket 15
tains 15
tarn@@ 15
te-@@ 15
teammates 15
teenageralter 15
teppi@@ 15
thick 15
topless 15
transportiert 15
treadmill 15
trifft 15
trocken@@ 15
tubes 15
tänzerin 15
ufer@@ 15
verkleidete 15
veter@@ 15
vielleicht 15
vorüber 15
vorüber@@ 15
waff@@ 15
wandt 15
weg@@ 15
welcome 15
well@@ 15
were 15
wil@@ 15
willi@@ 15
zahlreiche 15
zeitschriften 15
zeitungen 15
zeremonie 15
zöpfen 15
öffentlichkeit 15
übungen 15
12 14
afrikanischen 14
afroamerikanische 14
afroamerikanischer 14
alko@@ 14
aller 14
amm@@ 14
ampel 14
ansicht 14
asiatinnen 14
aten 14
attle 14
au 14
aufgaben 14
ausgebreite@@ 14
b-@@ 14
bast@@ 14
befesti@@ 14
bemalten 14
besitz 14
blockt 14
blö@@ 14
boden@@ 14
braut@@ 14
broad 14
budd@@ 14
burger 14
burgunder@@ 14
cess 14
cheer@@ 14
cola-@@ 14
congre@@ 14
cular 14
daytime 14
demon@@ 14
denkmal 14
destination 14
dges 14
discu@@ 14
dul@@ 14
dü@@ 14
dünn@@ 14
einfahrt 14
einsamer 14
elementary 14
eli@@ 14
embra@@ 14
eng@@ 14
entlanggeht 14
erdhügel 14
erie 14
erleu@@ 14
erter 14
eu@@ 14
fau@@ 14
fenstern 14
folgen 14
friseur@@ 14
gazes 14
gefär@@ 14
gehör@@ 14
geish@@ 14
geldautomaten 14
gemu@@ 14
geparkten 14
geräte 14
gestellt 14
getroffen 14
gh 14
ght@@ 14
gleichgewicht 14
gn 14
grube 14
gymna@@ 14
halstuch 14
halt@@ 14
hamm@@ 14
hawai@@ 14
headset 14
heira@@ 14
husky 14
hänge@@ 14
hüpfen 14
ien 14
inen 14
inline 14
iro@@ 14
jong@@ 14
kampfsport@@ 14
kastanien@@ 14
kee@@ 14
kellner 14
kenn@@ 14
kerze 14
ket 14
khakifarbenen 14
klein 14
kna@@ 14
kommen@@ 14
krö@@ 14
kte 14
ktem 14
kti@@ 14
kul@@ 14
laborkittel 14
lands 14
leger 14
lichem 14
lly@@ 14
lockigen 14
lok@@ 14
marathonläufer 14
mark@@ 14
may 14
mitt 14
mittelalter@@ 14
mo 14
musta@@ 14
mäht 14
mülleimer 14
natur 14
natur@@ 14
navig@@ 14
nen@@ 14
nerin 14
neugeboren@@ 14
opens 14
outfielder 14
pans 14
parcours 14
peaks 14
ped@@ 14
pfeil 14
platz@@ 14
plea@@ 14
poin@@ 14
port 14
porträt 14
ppel@@ 14
pro 14
punk 14
punk@@ 14
putzer 14
rasier@@ 14
recht 14
rechte 14
reini@@ 14
resort 14
rockband 14
rosafarbener 14
rothaariges 14
rustic 14
saft 14
schild@@ 14
schlafen@@ 14
schminkt 14
schritt 14
schwarz@@ 14
schwingen 14
schützen 14
shor@@ 14
sidelines 14
silber@@ 14
skateboar@@ 14
skel@@ 14
sou@@ 14
sowie 14
spen@@ 14
spit@@ 14
springer 14
sser 14
start@@ 14
startlinie 14
staubigen 14
stehend 14
stehender 14
steinbank 14
stel@@ 14
stelzen 14
stens 14
stock@@ 14
stor@@ 14
strahl@@ 14
stromschnellen 14
stumpf 14
styli@@ 14
stößt 14
stür@@ 14
surfs 14
sy 14
sägt 14
tambour@@ 14
tank@@ 14
tanzfläche 14
taucher@@ 14
tends 14
the@@ 14
those 14
tons 14
tracht 14
traditionelle 14
trav@@ 14
treiben 14
twi@@ 14
twister 14
ume 14
unbefestigte 14
ups 14
usly 14
utensi@@ 14
vergnügungspark 14
verheiratetes 14
verkehrs@@ 14
verletz@@ 14
videokamera 14
vortrag 14
wahr@@ 14
waist 14
wanne 14
wasch@@ 14
washes 14
weiter 14
wheel@@ 14
whilst 14
wol@@ 14
würde 14
zahnbürste 14
zauns 14
zei@@ 14
zeichnen 14
zeug 14
ziege 14
ziegelgebäude 14
ziellinie 14
zutaten 14
zylinder 14
ärmello@@ 14
öffent@@ 14
/ 13
abgeworfen 13
ame 13
ander@@ 13
aneinander 13
arbeitern 13
asien 13
ath 13
ators 13
aufga@@ 13
aufgereiht 13
autobahn 13
außenbereich 13
ba 13
backflip 13
backsteinmauer 13
balan@@ 13
barfüßige 13
baseballfeld 13
bathro@@ 13
beißen 13
bekleidet 13
beleuchtet 13
bergsteiger 13
bestellen 13
bevor 13
bildern 13
blasinstru@@ 13
bm@@ 13
boar@@ 13
brautjung@@ 13
brä@@ 13
bürstet 13
college-@@ 13
comi@@ 13
cou@@ 13
cray@@ 13
denk@@ 13
denkt 13
drah@@ 13
dudel@@ 13
dut@@ 13
eben@@ 13
eil 13
eine@@ 13
einrichtung 13
eisen@@ 13
elektrischen 13
elektroni@@ 13
engel 13
entfernen 13
entu@@ 13
erhö@@ 13
esstisch 13
ev@@ 13
even 13
fasst 13
figh@@ 13
fter 13
gebü@@ 13
gehender 13
gepäck@@ 13
gerichtet 13
gerin 13
geschnitten 13
gestreifte 13
git@@ 13
gleis 13
glänzenden 13
größeren 13
grün@@ 13
gymnastik@@ 13
handwerker 13
haw@@ 13
heim@@ 13
herbst@@ 13
herz@@ 13
hinterbeinen 13
hm@@ 13
hockeyspiel 13
hren 13
hubschrauber 13
hydranten 13
hängematte 13
ian 13
inlineskates 13
jackett 13
jüngerer 13
kartons 13
kauf@@ 13
key 13
kite@@ 13
knall@@ 13
knöpfen 13
kom@@ 13
konferen@@ 13
kunde 13
kurze 13
köpfe 13
lama 13
landstraße 13
langhaarige 13
laufbahn 13
laut@@ 13
lerin 13
level 13
lippen@@ 13
lob@@ 13
locken 13
losen 13
ly@@ 13
läuferin 13
lü@@ 13
maj@@ 13
marathon@@ 13
march 13
marki@@ 13
masken 13
maul@@ 13
meeres 13
mente 13
metallstange 13
mini-@@ 13
mirro@@ 13
mm 13
mod@@ 13
motocrossfahrer 13
motori@@ 13
mädchen@@ 13
männer@@ 13
männliches 13
nagel@@ 13
named 13
namen 13
navigates 13
nebel 13
ness 13
nor@@ 13
nude 13
nägel 13
ored 13
org@@ 13
orientalische 13
orned 13
patrio@@ 13
peace-zeichen 13
pf 13
picks 13
piercing 13
pink@@ 13
platten 13
ppen@@ 13
prei@@ 13
probieren 13
propan@@ 13
protest@@ 13
prüft 13
pä@@ 13
rasenmäher 13
regnerischen 13
religiö@@ 13
rollern 13
rosafarbene 13
ruderboot 13
rug@@ 13
rugbyspieler 13
rutschen 13
sammeln 13
sandwi@@ 13
schachtel 13
schaf 13
scheln 13
schleife 13
schlie@@ 13
schnür@@ 13
schrau@@ 13
schreib@@ 13
schüsseln 13
sculp@@ 13
seit@@ 13
selt@@ 13
sent@@ 13
sh-@@ 13
skat@@ 13
slacks 13
sombrer@@ 13
somewhere 13
sonnenlicht 13
sortiert 13
spazier@@ 13
spielzeugauto 13
ssion@@ 13
stabhoch@@ 13
stapelt 13
stativ 13
statt@@ 13
steaks 13
stecken 13
steile 13
stem 13
stolz 13
straßenarbeiter 13
streut 13
stro 13
stür 13
säcken 13
tab@@ 13
tags 13
tarnkleidung 13
tauziehen 13
tele@@ 13
ths 13
trauri@@ 13
trink@@ 13
tromm@@ 13
träger@@ 13
türki@@ 13
ugh 13
ula 13
unicef 13
uring 13
ush 13
verkauf@@ 13
vibrant 13
viertel 13
voll@@ 13
vorder@@ 13
vorderseite 13
vro@@ 13
wach@@ 13
walk@@ 13
wanderweg 13
waren@@ 13
wartungs@@ 13
wassermelonen 13
wasserski 13
weit@@ 13
wet@@ 13
windhunde 13
wohl 13
wolken 13
wood@@ 13
wän@@ 13
xt 13
xylophon 13
ziegelsteinen 13
ziegelwand 13
zit@@ 13
zten 13
zzy 13
zündet 13
ängt 13
überall 13
akten@@ 12
akti@@ 12
alt 12
ama@@ 12
ansieht 12
ap@@ 12
aters 12
aufzug 12
ausdruck 12
ausflug 12
aussehen 12
badeanzügen 12
barfüßi@@ 12
beachvolleyball 12
bedienen 12
beige@@ 12
beisammen 12
benden 12
bes 12
bew@@ 12
bewaldeten 12
bildes 12
binden 12
blä@@ 12
body@@ 12
bohr@@ 12
bohrmaschine 12
braun-weiße 12
brunn@@ 12
bräun@@ 12
buchstaben 12
care@@ 12
cause 12
ceremon@@ 12
chain@@ 12
chten@@ 12
chteten 12
cir@@ 12
contain@@ 12
cries 12
dekor@@ 12
deren 12
des@@ 12
dition@@ 12
door@@ 12
drän@@ 12
drü@@ 12
dunklem 12
egt 12
ehen 12
eingewickelt 12
einkaufen 12
einkaufsta@@ 12
eisk@@ 12
eleph@@ 12
entgegen@@ 12
euro@@ 12
fahrenden 12
fashi@@ 12
fasz@@ 12
fernsehen 12
fertig 12
fft 12
fishes 12
fon@@ 12
fontäne 12
footballspiel 12
frauen@@ 12
fußboden 12
fußgängern 12
füllen 12
gam@@ 12
geburtsta@@ 12
gefle@@ 12
gegen@@ 12
gegenständen 12
gehenden 12
geländewagen 12
gert 12
gesen@@ 12
gespielt 12
gestreifter 12
geöffneten 12
glä@@ 12
guit@@ 12
had 12
hause 12
hawk 12
hellhäutige 12
hemd@@ 12
herrn 12
herumstehen 12
hochstuhl 12
hock@@ 12
hoher 12
holzkonstruktion 12
horizont 12
hou@@ 12
huhn 12
hy@@ 12
iler 12
imbiss@@ 12
indian@@ 12
inspe@@ 12
ired 12
jahr@@ 12
japanischen 12
juggles 12
kajaks 12
kamm 12
karierter 12
kittel 12
klat@@ 12
kleineren 12
knie 12
kollegen 12
kop@@ 12
kopfschmuck 12
kopfstein@@ 12
krankenhaus@@ 12
krü@@ 12
ktion 12
kunft 12
kunstgalerie 12
kämpfer 12
kö@@ 12
ladefläche 12
lagen 12
laid 12
laterne 12
leben@@ 12
lebensmitteln 12
lecker@@ 12
letz@@ 12
lieren 12
lila@@ 12
lippe 12
ma-@@ 12
mal 12
mask@@ 12
mati@@ 12
meere@@ 12
meisten 12
meißelt 12
metri@@ 12
militäri@@ 12
model@@ 12
monit@@ 12
mut@@ 12
män@@ 12
männlichen 12
möglicherweise 12
münz@@ 12
namensschild 12
near@@ 12
new@@ 12
nis 12
nummern 12
nung 12
nungen 12
olli@@ 12
om@@ 12
onne 12
oranger 12
pal@@ 12
parks 12
pati@@ 12
pferder@@ 12
ph 12
pinkfarbener 12
plak@@ 12
produkt 12
prü@@ 12
pyrami@@ 12
q 12
radrennfahrer 12
rain@@ 12
reichen 12
rolls 12
rosa-@@ 12
rot-weiß-@@ 12
ruhigem 12
röhre 12
saugt 12
schals 12
schenkt 12
schlucht 12
schmin@@ 12
schot@@ 12
schutt 12
schwieri@@ 12
schütteln 12
schützt 12
scu@@ 12
sculpt@@ 12
seltsamen 12
separate 12
shop@@ 12
silberne 12
sims 12
sine 12
skate@@ 12
skatet 12
skies 12
sko@@ 12
soll 12
som@@ 12
spiegel@@ 12
spins 12
spring@@ 12
späht 12
spärlich 12
ssaal 12
stamm 12
starring 12
staun@@ 12
stellten 12
sterten 12
stiften 12
stil@@ 12
stisch 12
strecken 12
strumpf@@ 12
stuhl@@ 12
stum@@ 12
stur@@ 12
stämmen 12
stütz@@ 12
supp@@ 12
tage@@ 12
telefonzelle 12
tenni@@ 12
teria 12
tippt 12
touristen@@ 12
travel 12
treppen@@ 12
treppenstufen 12
typi@@ 12
tätowierung 12
tätowierungen 12
ub@@ 12
uchen 12
under@@ 12
une 12
unt 12
uro 12
verla@@ 12
visor 12
vö@@ 12
waschmaschine 12
washington 12
wegen 12
weil 12
wüsten@@ 12
zauber@@ 12
zeh@@ 12
zeich@@ 12
zelt@@ 12
zie@@ 12
zimmer@@ 12
zubereiten 12
zugs 12
zunehmen 12
ßi@@ 12
öffnen 12
überprüfen 12
übung 12
ügel 12
abgestellt 11
afrikaner 11
afrikani@@ 11
ang 11
angeboten 11
angebracht 11
ationen 11
ausgestreckt 11
ausgezogen 11
ausländi@@ 11
backpa@@ 11
baseball-@@ 11
bask@@ 11
bedi@@ 11
befin@@ 11
begeisterung 11
bekan@@ 11
bekleideter 11
beleu@@ 11
bemal@@ 11
betonmauer 11
blon@@ 11
blöcken 11
braunhaariger 11
brow@@ 11
brüne@@ 11
cheerlea@@ 11
chte@@ 11
complet@@ 11
contro@@ 11
custo@@ 11
darin 11
dicken 11
die@@ 11
dinosauri@@ 11
dlichen 11
doesn 11
dreirä@@ 11
dunkelten 11
ehr@@ 11
eig@@ 11
eimern 11
einfa@@ 11
eink@@ 11
elektronischen 11
ertem 11
eten 11
fahrradhelm 11
familien@@ 11
fassade 11
feier@@ 11
fertigen 11
ffer@@ 11
ffy 11
fig@@ 11
flauschi@@ 11
flauschiger 11
fluss@@ 11
flussufer 11
flö@@ 11
forscher 11
freil@@ 11
fremden 11
fröhlich 11
fußballdress 11
fächer 11
führer 11
füll@@ 11
gebauten 11
gefroren@@ 11
gegnerische 11
gelän@@ 11
gepunkteten 11
geschlo@@ 11
geschnittenen 11
geschoben 11
geschwindigkeit 11
gespannt 11
geträn@@ 11
geöffne@@ 11
ghtly 11
gießen 11
gold-@@ 11
grasbewachsen@@ 11
graues 11
grima@@ 11
gruppen@@ 11
gurt 11
gän@@ 11
halsk@@ 11
heav@@ 11
heraus@@ 11
herkunft 11
heruntergekommenen 11
holzzaun 11
hüb@@ 11
ilen 11
indien 11
industri@@ 11
ing-@@ 11
irs 11
jam@@ 11
jogg@@ 11
jogs 11
jung@@ 11
kaner 11
kaput@@ 11
kegeln 11
klaren 11
knö@@ 11
kontrol@@ 11
kraft 11
kreuzten 11
kulisse 11
lachende 11
ladung 11
lampen 11
langärmeligen 11
lehr@@ 11
leopar@@ 11
leuchtenden 11
liegende 11
lier@@ 11
ließt 11
lippen 11
llen 11
lokal 11
lun@@ 11
läufern 11
manövri@@ 11
maskottchen 11
maybe 11
mel 11
mensch@@ 11
mets 11
mige 11
mmen@@ 11
modernen 11
möwen 11
namens 11
nasser 11
neten 11
neuen 11
not@@ 11
notiz@@ 11
onspieler 11
ore 11
paci@@ 11
pain@@ 11
partie 11
passen@@ 11
patri@@ 11
pedestri@@ 11
peer 11
pelz@@ 11
peri@@ 11
pferdeschwanz 11
pizzeria 11
pp 11
protesti@@ 11
pturen 11
pyjam@@ 11
rail@@ 11
raining 11
rauch@@ 11
regelt 11
regenbogen@@ 11
reo@@ 11
rikscha 11
sari 11
schem 11
schmalen 11
schneebedeckte 11
scho@@ 11
schokoladen@@ 11
school-@@ 11
school@@ 11
schran@@ 11
schutzkleidung 11
schwebebalken 11
schwimmen@@ 11
secur@@ 11
segelt 11
seifenblase 11
selbst@@ 11
silberfarbenen 11
skol@@ 11
soon@@ 11
speeds 11
spielerinnen 11
spinn@@ 11
spitzen 11
sprit@@ 11
staff@@ 11
statur 11
staubsauger 11
stofftier 11
straßenfest 11
streichen 11
streifen@@ 11
stretches 11
strolls 11
strom@@ 11
swi@@ 11
tail@@ 11
tam@@ 11
taube 11
tchen 11
teddy@@ 11
theater@@ 11
thor@@ 11
too 11
tren@@ 11
turnschuhen 11
tut@@ 11
uch 11
ungewöhn@@ 11
uniformierter 11
unordentlichen 11
unteren 11
unterschiedlichen 11
uth 11
verw@@ 11
verwirr@@ 11
verzierten 11
vogel@@ 11
volleyballspiel 11
vollstän@@ 11
vorführung 11
wache 11
waffeln 11
wanderung 11
wandmaler@@ 11
wasserfläche 11
watermel@@ 11
wehren 11
werfer@@ 11
werkzeugen 11
wette 11
wieder 11
wildnis 11
windhund 11
winterjacke 11
writes 11
wählt 11
wäl@@ 11
zelten 11
zentrum 11
zerinnen 11
zieh@@ 11
zigarre 11
zuhause 11
ärm@@ 11
äufer 11
örtlichen 11
überdachten 11
,@@ 10
absol@@ 10
absperrung 10
adjusts 10
altmodischen 10
amüsiert 10
angemal@@ 10
anweisungen 10
any 10
anzahl 10
aufmerk@@ 10
balcon@@ 10
bauwerk 10
because 10
begeistert 10
beladen 10
bends 10
berei@@ 10
bikin@@ 10
blaskapelle 10
bord 10
boston 10
botto@@ 10
boul@@ 10
brennende 10
brot@@ 10
bürste 10
cit@@ 10
ckel@@ 10
comp@@ 10
darüber 10
diesen 10
digit@@ 10
dio 10
drag@@ 10
dritten 10
ebenfalls 10
eho@@ 10
eignis 10
einiger 10
einkaufstüten 10
eishockey 10
electro@@ 10
elektro@@ 10
ena 10
entfernung 10
enth@@ 10
erleuchteten 10
erzeugnisse 10
ett 10
ett@@ 10
europa 10
fack@@ 10
fahrzeugen 10
farbiger 10
fernseh@@ 10
festgebunden 10
fic 10
fliege 10
flug 10
flü@@ 10
formeller 10
fotogra@@ 10
frem@@ 10
frisbe@@ 10
frisbee-scheibe 10
ga 10
gangs 10
ge-@@ 10
gefolgt 10
gegenüber@@ 10
gehöri@@ 10
gehüllt 10
gelangen 10
gelegenen 10
gepfle@@ 10
geschir@@ 10
geschn@@ 10
gesetz@@ 10
getreide 10
gewinnen 10
gitter 10
glichen 10
gos 10
gymnasti@@ 10
hab@@ 10
harmonika 10
henden 10
hochzu@@ 10
hohes 10
hydr@@ 10
häl@@ 10
ierten 10
inc@@ 10
individu@@ 10
inlin@@ 10
ise 10
kampfsportler 10
kanadi@@ 10
kerle 10
kin 10
klammert 10
kleid@@ 10
kleide@@ 10
kneipe 10
kolle@@ 10
kontrolle 10
krankenhaus 10
kricket 10
krä@@ 10
kund@@ 10
kurzem 10
küsten@@ 10
labor@@ 10
langärm@@ 10
laufband 10
leichtath@@ 10
lernen 10
leuchten@@ 10
lich@@ 10
lichtern 10
linke 10
loh@@ 10
long@@ 10
lten 10
luftball@@ 10
luftballon 10
lächelnden 10
mai@@ 10
manche 10
mannequ@@ 10
masten 10
mea@@ 10
meer@@ 10
mehr 10
menschenansammlung 10
middle-@@ 10
mikrosk@@ 10
modell 10
mpe@@ 10
musikgruppe 10
muzz@@ 10
möbel@@ 10
nachmittag 10
niedrigen 10
nächt@@ 10
obdachlo@@ 10
obdachloser 10
objekti@@ 10
och@@ 10
offen@@ 10
oldti@@ 10
op 10
operates 10
ordnung 10
orientali@@ 10
ort@@ 10
osten 10
oth@@ 10
peers 10
personen@@ 10
pfeife 10
plakat@@ 10
plüschtier 10
portra@@ 10
ppi@@ 10
rasenfläche 10
reflektier@@ 10
rest@@ 10
rich@@ 10
ro 10
rodeo@@ 10
rohre 10
rostigen 10
rudern 10
rugby@@ 10
sandhügel 10
sar@@ 10
schaulusti@@ 10
schieß@@ 10
schlammigen 10
schlan@@ 10
schlo@@ 10
schmu@@ 10
schneeschuhen 10
schneit 10
schon@@ 10
schwanz 10
schwarz-weiße 10
schwarzhaarige 10
schwertern 10
seifen@@ 10
self 10
sfeld 10
shado@@ 10
shoul@@ 10
sicher@@ 10
sky-@@ 10
smartphone 10
smi@@ 10
speer 10
spiegelbild 10
spot@@ 10
spr@@ 10
stad@@ 10
stadtpark 10
stadtszene 10
stag 10
stair@@ 10
steintreppe 10
stellte 10
store@@ 10
strands 10
straßenrennen 10
straßenseite 10
straßenszene 10
strei@@ 10
stret@@ 10
stretched 10
stripe 10
swim@@ 10
sy@@ 10
tennisplatz 10
teri@@ 10
though 10
trak@@ 10
travels 10
treppenhaus 10
trin@@ 10
trocknet 10
tropischen 10
tätowierte 10
türöffnung 10
ulti@@ 10
unglück@@ 10
uns 10
vergnügt 10
verschränkten 10
visi@@ 10
vision 10
volleyballspieler 10
vorderen 10
vorsichtig 10
wachsen@@ 10
wasserbecken 10
wasserski@@ 10
wenn 10
wilden 10
wischen 10
woo@@ 10
wunderschöne 10
wäh@@ 10
wäsche@@ 10
x-@@ 10
zuschauer@@ 10
zut@@ 10
zäun@@ 10
ßer 10
ßer@@ 10
ähnlich 10
öff@@ 10
übergewichtiger 10
absperr@@ 9
altmodi@@ 9
angezogener 9
anhaben 9
asiat 9
attraktive 9
auen 9
aufgereg@@ 9
ausgestre@@ 9
aussehendes 9
außer@@ 9
bati@@ 9
bauern@@ 9
bedruckten 9
befahrenen 9
bekleidete 9
betrachter 9
betreten 9
blan@@ 9
brau@@ 9
bten 9
bzw. 9
cau@@ 9
cell@@ 9
chop@@ 9
clean@@ 9
cours 9
cowbo@@ 9
dahinter 9
daugh@@ 9
dieselbe 9
drop 9
dä@@ 9
ef@@ 9
eishockey@@ 9
eln@@ 9
erial 9
fels 9
felsbrocken 9
felsvorsprung 9
fertig@@ 9
flipflops 9
fotografi@@ 9
ful@@ 9
förm@@ 9
garden@@ 9
gebo@@ 9
gefahren 9
geflochten@@ 9
gehstock 9
geld@@ 9
gemä@@ 9
gepflasterte 9
gewi@@ 9
ggles 9
gieren 9
gitarre@@ 9
größ@@ 9
gum@@ 9
gürteln 9
haltend 9
haut 9
hinder@@ 9
hohem 9
holzbrett 9
hübsche 9
hübschen 9
ier@@ 9
indiani@@ 9
ird 9
ire 9
irokesenschnitt 9
ittel 9
itten 9
jahrmarkt@@ 9
jeman@@ 9
jogging@@ 9
jugg@@ 9
kamer@@ 9
kampfspor@@ 9
karat@@ 9
karohemd 9
kehren 9
kell@@ 9
klei@@ 9
kopfbedeckungen 9
kostü@@ 9
kr@@ 9
kragen@@ 9
ladens 9
lap@@ 9
lean@@ 9
lebensmittelmarkt 9
letscher 9
lett 9
lows 9
lush 9
mannschaft@@ 9
migen 9
militärangehöri@@ 9
militäruni@@ 9
mmel 9
mmern 9
motiv 9
musikinstrument 9
möchte 9
nahen 9
nament 9
nassem 9
nes 9
nnen 9
nä@@ 9
orangefarbenes 9
orientalisch 9
our 9
palme 9
parken 9
pfi@@ 9
pho@@ 9
phones 9
pickni@@ 9
plasti@@ 9
polohemd 9
produ@@ 9
produkten 9
präch@@ 9
pullunder 9
quar@@ 9
radfahren 9
rauchen 9
reklametafel 9
ring@@ 9
rosen 9
sauber 9
saxofon 9
schachteln 9
schaum@@ 9
schil@@ 9
schirm@@ 9
schließen 9
schloss 9
schmut@@ 9
schnappt 9
schneebedecktes 9
schr@@ 9
schun@@ 9
schwarz-weißem 9
schwe@@ 9
schär@@ 9
schülern 9
seichten 9
seltsam@@ 9
separ@@ 9
skater@@ 9
skop 9
soft@@ 9
spritz@@ 9
spru@@ 9
squats 9
sseln 9
stamm@@ 9
stehendes 9
stern@@ 9
steuert 9
stirn@@ 9
strom 9
stun@@ 9
stung 9
sturm 9
stürzten 9
supermarkt 9
süßig@@ 9
tagsüber 9
taining 9
tankstelle 9
tattoo@@ 9
tea@@ 9
technik 9
teenagern 9
teilnehmen 9
tell@@ 9
theat@@ 9
thro@@ 9
tig@@ 9
tiges 9
tou@@ 9
trainings@@ 9
trau@@ 9
trockenen 9
ttery 9
tures 9
tän@@ 9
u-bahn@@ 9
ulptur 9
umarm@@ 9
umringt 9
unge@@ 9
ungewöhnlichen 9
uniformierte 9
verbun@@ 9
vergnügen 9
verschieden 9
versuch 9
verteidiger 9
vice 9
violet@@ 9
vogelperspektive 9
vorführt 9
vy 9
vögeln 9
völlig 9
wachmann 9
warmen 9
warnweste 9
watte 9
web@@ 9
weiteren 9
wohnung 9
wärmen 9
ym@@ 9
zahl@@ 9
zweite 9
öh@@ 9
% 8
-hemd 8
acro@@ 8
akkorde@@ 8
amerikanisches 8
angezogene 8
ansehen 8
anten 8
asp@@ 8
ata 8
ater 8
aufnah@@ 8
ausgeb@@ 8
bandan@@ 8
befahren@@ 8
beschä@@ 8
bestehend 8
blase 8
bockenden 8
breiten 8
briti@@ 8
buch@@ 8
bulldo@@ 8
butter@@ 8
cano@@ 8
chtern 8
chts@@ 8
ckchen 8
cktem 8
cobb@@ 8
countr@@ 8
cour@@ 8
cow@@ 8
cycle 8
drahtzaun 8
draws 8
dritter 8
dunkelheit 8
dur@@ 8
dy@@ 8
ek 8
enjo@@ 8
enthusi@@ 8
entri@@ 8
entrum 8
erinnen 8
etwa 8
fabri@@ 8
fahren@@ 8
faulen@@ 8
faulenzen 8
football-spiel 8
frischem 8
fußgängerübergang 8
gebir@@ 8
gebäude@@ 8
gela@@ 8
gelb-schwarzen 8
gepunk@@ 8
gerü@@ 8
geschmückt 8
geschäft@@ 8
glatze 8
gleich@@ 8
grei@@ 8
grünfläche 8
gte 8
gä@@ 8
hallo@@ 8
handys 8
hellgrünen 8
hellhäuti@@ 8
heraushängender 8
herunterge@@ 8
hinauf@@ 8
hne 8
hochha@@ 8
horizon@@ 8
hosen@@ 8
hosenträgern 8
hüfte 8
ien@@ 8
infan@@ 8
ings@@ 8
irgen@@ 8
irgendeinem 8
is@@ 8
iten@@ 8
jeweils 8
jewel@@ 8
jün@@ 8
kahl@@ 8
kanerin 8
ketten@@ 8
kimon@@ 8
klappstühlen 8
kompletter 8
kran@@ 8
lab@@ 8
lach@@ 8
lack@@ 8
lad@@ 8
legerer 8
leot@@ 8
lli@@ 8
long-@@ 8
magaz@@ 8
marin@@ 8
marsch@@ 8
mediz@@ 8
mers 8
mikro@@ 8
mitgliedern 8
mitspieler 8
mly 8
mmert 8
mounta@@ 8
mp 8
mpe 8
muskulöser 8
muss 8
nackte 8
nadel@@ 8
nati@@ 8
nn@@ 8
orientalischer 8
ory 8
packen 8
pfadfin@@ 8
pian@@ 8
pier@@ 8
pink-@@ 8
podest 8
porträ@@ 8
potat@@ 8
pours 8
prepar@@ 8
presen@@ 8
pump@@ 8
putz@@ 8
radre@@ 8
rads 8
read@@ 8
richter 8
riesen@@ 8
riesi@@ 8
rosaroten 8
rot-schwarzen 8
rothaariger 8
rout@@ 8
ruder 8
ruhig 8
satt@@ 8
scen@@ 8
schach@@ 8
schanze 8
schlendern 8
schutzwe@@ 8
schwarm 8
schweiß@@ 8
schwenken 8
schwere 8
schöner 8
schütt@@ 8
schütz@@ 8
sem 8
sfarbenen 8
shalle 8
short-@@ 8
sicherheitswesten 8
sigen 8
skleid 8
sni@@ 8
soeben 8
sold@@ 8
spielenden 8
spielsachen 8
splatz 8
sporth@@ 8
sporthalle 8
sprun@@ 8
ssene 8
staffelei 8
stam@@ 8
stammeskleidung 8
steh@@ 8
stik@@ 8
strumpfhose 8
strümpfen 8
stud@@ 8
stunde 8
städ@@ 8
suspen@@ 8
synchro@@ 8
telefonieren 8
tetes 8
tinten@@ 8
tischer 8
tramp@@ 8
trompe@@ 8
trottet 8
tz 8
tänzern 8
u-bahnstation 8
umgebenen 8
ump@@ 8
umzäunten 8
unterhemd 8
verdi@@ 8
verschwo@@ 8
vin@@ 8
volle 8
vorbeil@@ 8
wahrscheinlich 8
wassersprenger 8
ween-@@ 8
weiblichen 8
weise 8
weiterer 8
wettbewer@@ 8
wettei@@ 8
wintertag 8
wollmütze 8
zeu@@ 8
zhut 8
ziegelbau 8
zuhört 8
äng@@ 8
é@@ 8
ñ@@ 8
öffnung 8
admi@@ 7
aga@@ 7
alter@@ 7
anda 7
balk@@ 7
basketballfeld 7
bauarbeiter@@ 7
begin@@ 7
beguta@@ 7
bekann@@ 7
bewer@@ 7
blau-grünen 7
blond-@@ 7
bord@@ 7
cation 7
chtung 7
ciali@@ 7
circ@@ 7
close@@ 7
convers@@ 7
costum@@ 7
cran@@ 7
cue 7
dess@@ 7
deten 7
dings 7
disc@@ 7
dunkl@@ 7
elf 7
equip@@ 7
fami@@ 7
famili@@ 7
farben@@ 7
farbi@@ 7
feln 7
fiel@@ 7
flag@@ 7
fontän@@ 7
frisbee-@@ 7
gall@@ 7
gebi@@ 7
gebunden 7
gebung 7
gement 7
gemü@@ 7
gewe@@ 7
gewä@@ 7
gie@@ 7
glatz@@ 7
haube 7
heit@@ 7
händ@@ 7
ington 7
inline@@ 7
inst 7
jen@@ 7
jum@@ 7
kaffe@@ 7
khakifarbener 7
klapp@@ 7
kostümierte 7
kreuz@@ 7
köpfi@@ 7
kümmern 7
langes 7
lear@@ 7
lilafarbener 7
mates 7
mehrfarbigen 7
met 7
mir@@ 7
mobi@@ 7
mock 7
musikinstrumenten 7
nackter 7
nei@@ 7
obje@@ 7
oppon@@ 7
pa 7
peop@@ 7
perform@@ 7
pfeln 7
pic@@ 7
piercings 7
pizz@@ 7
polizi@@ 7
profi-@@ 7
prä@@ 7
pullovern 7
quadra@@ 7
quarter@@ 7
randstein 7
reflektierenden 7
regnet 7
rick@@ 7
ringkampf 7
rodeoreiter 7
rolle 7
rosa@@ 7
rot-weißes 7
rubs 7
rum 7
rän@@ 7
räumen 7
schlafend 7
schlafendes 7
schlamm@@ 7
schließ@@ 7
schlittschuhen 7
schnau@@ 7
schub@@ 7
schwin@@ 7
schönes 7
schülerin 7
schützern 7
seichtem 7
seligkeiten 7
simi@@ 7
sof@@ 7
sommertag 7
sonn@@ 7
spea@@ 7
ssa@@ 7
ssiert 7
ssig@@ 7
ssy 7
stau@@ 7
strü@@ 7
stücken 7
sweste 7
sym@@ 7
säubert 7
säug@@ 7
tellern 7
tlichen 7
tribün@@ 7
trol@@ 7
trüben 7
türkisen 7
umten 7
unbekann@@ 7
untergrund 7
var@@ 7
vertei@@ 7
violetter 7
voran 7
wards 7
wasserstraße 7
weder 7
wehr@@ 7
weiß-schwarzer 7
windo@@ 7
zigen 7
zuhör@@ 7
zur@@ 7
zurecht 7
ßen@@ 7
ü 7
übers@@ 7
ür@@ 7
-skinned 6
adi@@ 6
afroameri@@ 6
akro@@ 6
ange 6
angebo@@ 6
angen 6
anie 6
ansammlung 6
arring 6
außen 6
ballspieler 6
beach@@ 6
beauti@@ 6
bedru@@ 6
beu@@ 6
bogen@@ 6
born 6
bot@@ 6
bott@@ 6
bran@@ 6
bucks 6
bung 6
cand@@ 6
chine@@ 6
cock@@ 6
compe@@ 6
crou@@ 6
dau@@ 6
eit@@ 6
eite 6
elefan@@ 6
entran@@ 6
fei@@ 6
freu@@ 6
gefä@@ 6
geschnitt@@ 6
getr@@ 6
gewicht 6
gewin@@ 6
grund 6
hnen@@ 6
hre 6
hür@@ 6
invol@@ 6
kani@@ 6
keiten 6
kets 6
kleideter 6
kopft@@ 6
label@@ 6
lapt@@ 6
leh@@ 6
letter 6
llt 6
ländi@@ 6
mahl@@ 6
merk@@ 6
mittl@@ 6
nah@@ 6
neck@@ 6
niedri@@ 6
nisse 6
note@@ 6
orange@@ 6
paper@@ 6
paral@@ 6
parti@@ 6
passagi@@ 6
passagieren 6
pfa@@ 6
pfel 6
plü@@ 6
pony@@ 6
ption 6
puzz@@ 6
quad@@ 6
rekla@@ 6
religi@@ 6
rench 6
repair@@ 6
rosaro@@ 6
rothaari@@ 6
ruder@@ 6
ruhi@@ 6
schaften 6
schaufen@@ 6
schir@@ 6
schlauch@@ 6
schrift 6
schut@@ 6
scienti@@ 6
shin@@ 6
silhouet@@ 6
snea@@ 6
staub@@ 6
strick@@ 6
stuff@@ 6
swin@@ 6
syn@@ 6
synch@@ 6
teena@@ 6
teenager@@ 6
tei@@ 6
terri@@ 6
touri@@ 6
trie@@ 6
tropi@@ 6
uft 6
universit@@ 6
unusu@@ 6
usi@@ 6
veranstalt@@ 6
verkaufs@@ 6
vern 6
versamm@@ 6
vie 6
volk@@ 6
wagen@@ 6
wash@@ 6
wassermel@@ 6
woll@@ 6
zw@@ 6
zün@@ 6
öpfen 6
überqu@@ 6
acrobati@@ 5
ara@@ 5
aro@@ 5
arren 5
badmin@@ 5
balanci@@ 5
beau@@ 5
beoba@@ 5
bere@@ 5
bewölk@@ 5
boo 5
brides@@ 5
buff@@ 5
camer@@ 5
cers 5
cket 5
cture 5
eg@@ 5
entfern@@ 5
erungen 5
farbenem 5
fel 5
freund@@ 5
frie@@ 5
galerie 5
gebil@@ 5
geblüm@@ 5
gebun@@ 5
gegneri@@ 5
geno@@ 5
geschmü@@ 5
gesell@@ 5
gewän@@ 5
gewäss@@ 5
gewöhn@@ 5
graffit@@ 5
guitar@@ 5
gung@@ 5
hard@@ 5
hem@@ 5
hölzer@@ 5
ima@@ 5
imbi@@ 5
irokesen@@ 5
irts 5
karo@@ 5
karre 5
kehr@@ 5
knei@@ 5
kreu@@ 5
langärmel@@ 5
lege@@ 5
lly 5
maler@@ 5
ment@@ 5
mmer@@ 5
mmerung 5
moun@@ 5
mün@@ 5
neigh@@ 5
nier 5
num@@ 5
oce@@ 5
onloo@@ 5
or-@@ 5
perü@@ 5
pfei@@ 5
possi@@ 5
rik@@ 5
rüstung 5
sanddün@@ 5
scaffol@@ 5
schlam@@ 5
schneebedeck@@ 5
schnurr@@ 5
scream@@ 5
secon@@ 5
shir@@ 5
skinned 5
ssi 5
stamme@@ 5
staubsau@@ 5
strin@@ 5
strüm@@ 5
stüten 5
sur 5
symbo@@ 5
sän@@ 5
säu@@ 5
tags@@ 5
tain@@ 5
telefonz@@ 5
testelle 5
tos 5
tradition@@ 5
trun@@ 5
trägern 5
tter@@ 5
ttet 5
two@@ 5
unters@@ 5
urr@@ 5
urs 5
uta@@ 5
vari@@ 5
vement 5
verheira@@ 5
versu@@ 5
verteidi@@ 5
vri@@ 5
walmar@@ 5
wassers@@ 5
worfen 5
xing 5
ympi@@ 5
zenden 5
zierten 5
zig@@ 5
zü@@ 5
übergewich@@ 5
ünst@@ 5
$ 4
@ 4
accor@@ 4
alie 4
ander 4
angezogen@@ 4
anhän@@ 4
anst@@ 4
anwei@@ 4
anz 4
arr@@ 4
audi@@ 4
bede@@ 4
begeister@@ 4
bele@@ 4
beleb@@ 4
beschäf@@ 4
bill@@ 4
billar@@ 4
blas@@ 4
blüm@@ 4
brett@@ 4
by@@ 4
bäl@@ 4
chalk@@ 4
chur@@ 4
cil 4
classi@@ 4
dekora@@ 4
deo 4
don 4
dread@@ 4
drit@@ 4
dün@@ 4
einsam@@ 4
eless 4
ental 4
erisch 4
erseite 4
erwachsen@@ 4
escal@@ 4
fini@@ 4
foli@@ 4
führ@@ 4
fün@@ 4
gar 4
gemäl@@ 4
gentle@@ 4
gepark@@ 4
gepf@@ 4
gewich@@ 4
gir@@ 4
gner 4
hobenen 4
hug@@ 4
hälter 4
kapu@@ 4
karu@@ 4
koff@@ 4
käfi@@ 4
lamp@@ 4
later@@ 4
liefer@@ 4
lil@@ 4
locks 4
loun@@ 4
manö@@ 4
mbi@@ 4
meiß@@ 4
monopol@@ 4
motocross@@ 4
mögli@@ 4
ners 4
od@@ 4
othek 4
oze@@ 4
pajam@@ 4
partment 4
pfer 4
pflaster@@ 4
phon 4
ples 4
ppies 4
profe@@ 4
prüfen 4
pulli 4
radrenn@@ 4
rah@@ 4
rand@@ 4
reflekti@@ 4
reklame@@ 4
repa@@ 4
rested 4
ried 4
roof@@ 4
rosti@@ 4
räder 4
saxof@@ 4
schmet@@ 4
schnüff@@ 4
schoko@@ 4
schäfer@@ 4
scul@@ 4
seicht@@ 4
sell@@ 4
sely 4
silhou@@ 4
siting 4
sklei@@ 4
sonnenunter@@ 4
sonni@@ 4
spannt 4
sprü@@ 4
stab@@ 4
steig 4
stening 4
stert 4
ston 4
swesten 4
synchroni@@ 4
tax@@ 4
teilneh@@ 4
tial 4
transport@@ 4
trä@@ 4
unbefesti@@ 4
veranst@@ 4
wrest@@ 4
xy@@ 4
xylo@@ 4
zeremon@@ 4
zuschau@@ 4
ärmel@@ 4
é 4
übun@@ 4
7@@ 3
aband@@ 3
abo@@ 3
adju@@ 3
af@@ 3
agen 3
amerikani@@ 3
approa@@ 3
aquari@@ 3
attemp@@ 3
aufblas@@ 3
aufger@@ 3
ause 3
beisam@@ 3
bene@@ 3
berü@@ 3
bewal@@ 3
bewe@@ 3
beweg@@ 3
bies 3
blea@@ 3
blue@@ 3
bock@@ 3
bong@@ 3
bou@@ 3
bracht 3
brocken 3
brown@@ 3
burg@@ 3
bür@@ 3
cauc@@ 3
cele@@ 3
checker@@ 3
chens 3
class@@ 3
demonstr@@ 3
dent 3
differ@@ 3
donal@@ 3
dt 3
dump@@ 3
dunkelhäuti@@ 3
eben 3
ehmen 3
eht 3
einkaufsz@@ 3
eiscre@@ 3
ele 3
emand 3
ens@@ 3
entlan@@ 3
entspan@@ 3
establi@@ 3
eth@@ 3
even@@ 3
ever@@ 3
exer@@ 3
fac@@ 3
fass@@ 3
ffee 3
flau@@ 3
flüssig@@ 3
fon 3
frau@@ 3
frieden@@ 3
fußgängerüber@@ 3
fän@@ 3
gebau@@ 3
geldbör@@ 3
gem@@ 3
gesä@@ 3
gitar@@ 3
gray@@ 3
grä@@ 3
harmoni@@ 3
heraush@@ 3
hout 3
hub@@ 3
indu@@ 3
itt 3
kei@@ 3
käm@@ 3
lared 3
legestelle 3
leimer 3
litt@@ 3
läu@@ 3
marath@@ 3
mc@@ 3
menten 3
met@@ 3
mexi@@ 3
mierte 3
mierter 3
muse@@ 3
mäher 3
namens@@ 3
nass@@ 3
nea@@ 3
neopren@@ 3
numer@@ 3
näch@@ 3
oba@@ 3
oph@@ 3
orn@@ 3
outf@@ 3
papi@@ 3
ping@@ 3
präsen@@ 3
pull@@ 3
pullo@@ 3
py@@ 3
quo@@ 3
ree 3
reiche 3
restauran@@ 3
riksch@@ 3
rollersk@@ 3
rying 3
schauf@@ 3
schwi@@ 3
shal@@ 3
shaw@@ 3
sidel@@ 3
sle 3
smar@@ 3
spren@@ 3
ssor 3
steiger 3
stin@@ 3
suring 3
swee@@ 3
ters@@ 3
thi@@ 3
thum@@ 3
togra@@ 3
tory 3
tour@@ 3
treadmi@@ 3
troph@@ 3
tty 3
twagen 3
u-@@ 3
undert 3
unice@@ 3
uniform@@ 3
vacuum@@ 3
vibran@@ 3
vis@@ 3
vord@@ 3
vortra@@ 3
wai@@ 3
wart@@ 3
wasserspren@@ 3
wel 3
wheelbar@@ 3
worl@@ 3
wärt@@ 3
zau@@ 3
zeige 3
zist 3
zogen 3
-american 2
adul@@ 2
after@@ 2
allen@@ 2
amer@@ 2
amo@@ 2
arbeiter@@ 2
aufgerei@@ 2
auft 2
auran@@ 2
auss@@ 2
ausseh@@ 2
bal 2
ban 2
bed@@ 2
beut@@ 2
bigen 2
blät@@ 2
board@@ 2
borne 2
brun@@ 2
brünet@@ 2
bub@@ 2
bör@@ 2
bün@@ 2
ca-@@ 2
caf@@ 2
cated 2
chal@@ 2
cham@@ 2
cident 2
clou@@ 2
comput@@ 2
conc@@ 2
dark@@ 2
dest 2
digkeit 2
drahtz@@ 2
drin@@ 2
elect@@ 2
emon@@ 2
enti@@ 2
fee@@ 2
felsvor@@ 2
fitne@@ 2
fläch@@ 2
footed 2
fted 2
gebildet 2
geflo@@ 2
gehö@@ 2
gehü@@ 2
geldau@@ 2
gepflaster@@ 2
gepä@@ 2
gerer 2
gical 2
glied 2
graff@@ 2
gue 2
gul@@ 2
gür@@ 2
haari@@ 2
hals@@ 2
hill@@ 2
hom@@ 2
hospit@@ 2
hula-hoop-@@ 2
höl@@ 2
inju@@ 2
jog@@ 2
klassen@@ 2
konzentri@@ 2
kunstwer@@ 2
la-@@ 2
laugh@@ 2
leich@@ 2
lein@@ 2
letes 2
mach 2
mals 2
masch@@ 2
maschen@@ 2
mcdonal@@ 2
mern 2
milit@@ 2
militä@@ 2
moto@@ 2
mpf@@ 2
mur@@ 2
müllton@@ 2
neben@@ 2
obsta@@ 2
outfiel@@ 2
ow 2
perspektive 2
pflo@@ 2
pfü@@ 2
pig@@ 2
platt@@ 2
police@@ 2
posi@@ 2
publi@@ 2
q@@ 2
rasse 2
repar@@ 2
richt@@ 2
ricksha@@ 2
sammlung 2
sax@@ 2
schacht@@ 2
schlit@@ 2
schriften 2
seli@@ 2
sentation 2
shepher@@ 2
shirt@@ 2
sino 2
snowboard@@ 2
sque@@ 2
squee@@ 2
srichter 2
ssell 2
strau@@ 2
struk@@ 2
stures 2
sungen 2
tently 2
tooth@@ 2
torhü@@ 2
track@@ 2
traf@@ 2
trei@@ 2
ttert 2
tting 2
ulen 2
unord@@ 2
untersu@@ 2
usk 2
vel 2
veral 2
verschne@@ 2
währen@@ 2
yho@@ 2
zogen@@ 2
äumen 2
è@@ 2
#@@ 1
&@@ 1
&apos;@@ 1
-haired 1
= 1
_ 1
achter@@ 1
agi@@ 1
aku@@ 1
akustik@@ 1
amü@@ 1
arre 1
asiati@@ 1
automat@@ 1
bab@@ 1
bad@@ 1
barfü@@ 1
bbelt 1
benut@@ 1
betra@@ 1
bora@@ 1
brand@@ 1
bst@@ 1
cany@@ 1
climb@@ 1
concre@@ 1
contra@@ 1
deco@@ 1
dium 1
ehr 1
elek@@ 1
entra@@ 1
erzeug@@ 1
eys 1
flops 1
froren@@ 1
füllten 1
geschä@@ 1
gesti@@ 1
gestiku@@ 1
gestreif@@ 1
hall@@ 1
handwer@@ 1
herau@@ 1
heraushän@@ 1
hers@@ 1
hula-@@ 1
häuti@@ 1
ih@@ 1
irt 1
jewe@@ 1
jugend@@ 1
jüng@@ 1
kab@@ 1
kaja@@ 1
kajak@@ 1
kastan@@ 1
kleidet 1
konstruk@@ 1
ktive 1
köpfiger 1
lade@@ 1
legg@@ 1
ley@@ 1
lichkeit 1
läch@@ 1
marschi@@ 1
medie@@ 1
mpft 1
mül@@ 1
old@@ 1
oon 1
orient@@ 1
outdo@@ 1
pating 1
performan@@ 1
pierc@@ 1
pod 1
practi@@ 1
probi@@ 1
pyra@@ 1
pär@@ 1
race@@ 1
rece@@ 1
regneri@@ 1
roller@@ 1
runn@@ 1
rute 1
samm@@ 1
scheinlich 1
schied@@ 1
schl@@ 1
schlen@@ 1
schwa@@ 1
schwar@@ 1
seitig 1
selbe 1
shment 1
siti@@ 1
skap@@ 1
smart@@ 1
spark 1
stromschn@@ 1
tender 1
towar@@ 1
trolle 1
turen 1
tänz@@ 1
unifor@@ 1
unordent@@ 1
unte@@ 1
utieren 1
vergnü@@ 1
vergnügung@@ 1
verschie@@ 1
verschrän@@ 1
verwir@@ 1
volley@@ 1
vorbe@@ 1
weih@@ 1
yar@@ 1
za 1
zurü@@ 1
zy@@ 1
zylin@@ 1
zä@@ 1
zäunten 1
} 1
à 1
ä 1
äht 1
älter@@ 1
öhn@@ 1
öser 1
û@@ 1
üb@@ 1
überda@@ 1
ł@@ 1
œ@@ 1
madeupword0000 0
