. 127064
a 88864
? 87023
the 60019
is 51221
what 37143
un 34943
in 32009
qu@@ 28180
de 26826
une 22312
on 21378
man 21057
i 20284
who 19675
la 17990
are 16360
of 16072
le 15345
and 15125
en 13224
, 12667
with 11827
sur 11802
&apos; 11253
e@@ 10834
et 10670
woman 10628
doing 10231
e 9892
des 9624
people 8411
while 8338
d&apos; 8151
dans 8045
ho@@ 7997
mm@@ 7991
two 7929
à 7926
homme 7883
st 7652
to 7637
at 7372
avec 7182
wearing 6989
ur 6809
se 6503
s 6494
le@@ 6445
d@@ 6396
é@@ 6311
cou@@ 6270
l@@ 6033
u@@ 5933
les 5856
color 5784
an 5720
elle 5077
white 5029
shirt 5009
que 5008
playing 4888
men 4877
sitting 4846
blue 4752
black 4701
young 4660
girl 4606
t 4578
boy 4567
es 4559
dog 4543
red 4503
femme 4459
du 4416
l&apos; 4284
standing 4283
fem@@ 4220
deux 4053
ans 4040
walking 3978
me 3817
his 3715
u 3688
holding 3494
street 3446
down 3330
te 3325
est 3275
-@@ 3238
ti@@ 3111
front 2902
group 2882
au 2871
gar@@ 2823
ro@@ 2730
v@@ 2725
women 2703
c 2650
p@@ 2639
en@@ 2611
does 2580
é 2576
looking 2538
water 2537
it 2529
ce 2487
ge 2467
a@@ 2431
ent 2408
her 2385
jo@@ 2385
child 2351
up 2332
green 2328
for 2271
by 2265
orange 2222
st@@ 2203
re@@ 2195
urs 2195
è@@ 2183
three 2119
children 2067
table 2064
t@@ 2040
person 2030
yellow 2029
outside 2011
n 2009
through 2004
son 2003
debout 1983
man@@ 1978
train 1965
fil@@ 1951
personnes 1949
their 1943
sont 1936
ball 1921
do 1916
air 1900
little 1891
one 1878
ç@@ 1836
brown 1828
jeune 1822
riding 1821
as 1815
large 1803
tandis 1796
de@@ 1792
devant 1792
hommes 1779
fille 1756
chi@@ 1747
into 1745
ue 1740
t-shirt 1731
running 1725
por@@ 1722
groupe 1689
r@@ 1676
garçon 1668
gen@@ 1667
assis 1665
hat 1652
chien 1646
po@@ 1627
ve@@ 1613
from 1599
che 1597
b@@ 1596
where 1587
mar@@ 1572
fan@@ 1553
c@@ 1544
out 1522
no@@ 1508
x 1500
fa@@ 1493
jumping 1492
colors 1489
rue 1464
building 1463
next 1463
il@@ 1451
rouge 1445
i@@ 1440
small 1438
ir 1425
ell@@ 1424
over 1419
son@@ 1403
jacket 1391
s@@ 1387
qu&apos; 1379
ne 1358
noir 1356
portant 1350
near 1330
person@@ 1329
ts 1326
around 1324
ass@@ 1318
blanc 1312
pour 1302
il 1301
beach 1291
ble@@ 1283
couple 1283
photo 1282
re 1281
field 1277
pink 1271
dressed 1261
girls 1257
dogs 1245
other 1238
sidewalk 1229
football 1204
bo@@ 1202
tra@@ 1200
m@@ 1175
ant 1149
crowd 1141
player 1135
er 1134
bike 1131
gens 1121
grass 1119
chemi@@ 1117
some 1112
court 1107
trois 1095
working 1082
snow 1081
talking 1080
ri@@ 1078
eau 1066
another 1056
bleu 1056
par@@ 1047
femmes 1043
that 1043
fait 1028
ses 1026
stand 1024
ê@@ 1024
ch@@ 1022
city 1018
wall 1018
au@@ 1014
off 1014
boys 1009
ca@@ 996
top 993
behind 988
enfant 987
soccer 986
park 982
lady 981
enfants 976
qui 959
sa 952
ver@@ 952
food 949
dress 943
camera 941
taking 941
vers 941
blan@@ 940
guitar 928
ru@@ 923
tient 917
carrying 914
long 911
côté 910
to@@ 909
smiling 907
something 898
asian 894
d 893
car 890
&quot; 875
autre 875
regarde 874
y 873
together 870
game 869
hair 869
it@@ 869
ea@@ 865
petit 857
mes 853
picture 852
along 849
face 847
tro@@ 841
te@@ 840
four 836
being 833
l 830
older 830
so@@ 830
tennis 830
â@@ 829
performing 818
type 813
joue 809
baby 807
g@@ 805
bench 802
près 802
ra@@ 800
stands 799
gray 796
o@@ 796
background 792
di@@ 792
baseball 789
several 788
tr@@ 785
stage 783
s&apos; 782
va@@ 781
watching 779
personne 774
tenant 762
kind 760
sau@@ 757
ma@@ 756
restaurant 753
many 750
pa@@ 745
vêtu 745
pe@@ 744
rock 743
jouant 740
shorts 740
road 739
in@@ 736
using 734
main 733
ons 730
y@@ 730
ment 729
hand 728
be 726
par 723
nes 722
bicycle 716
ss@@ 716
ste 716
pe 711
on@@ 709
pool 705
ure 705
male 700
race 699
guy 694
ballon 693
skateboard 691
side 690
sa@@ 689
play 687
sse 685
old 684
o 683
tree 679
ie 674
course 673
ing 671
clothing 668
robe 665
blond 664
chemise 663
ja@@ 662
ers 661
jaune 661
eating 660
pants 659
jeunes 656
boat 655
pi@@ 655
construction 654
dirt 648
vélo 648
sits 645
sc@@ 638
have 637
ed 636
has 630
tes 630
pose 629
each 626
kids 626
vi@@ 626
r 625
jouent 620
posing 620
co@@ 617
t-@@ 617
ar@@ 616
lors 616
reading 616
microphone 615
petite 615
costume 613
glasses 611
female 609
regardant 608
mon@@ 607
bus 606
cha@@ 604
suit 603
area 600
che@@ 600
dehors 600
its 600
ut@@ 599
con@@ 597
grand 596
across 594
bâtiment 594
ve 594
wo@@ 592
climbing 591
li@@ 590
ta@@ 588
purple 587
us 585
marche 584
n@@ 584
hands 583
blanche 580
ens 580
lunettes 578
head 577
room 577
looks 576
players 573
band 572
la@@ 572
day 570
sign 570
waiting 566
veste 565
basketball 560
horse 558
back 554
or 554
vo@@ 553
workers 551
assise 550
ground 550
trottoir 550
f@@ 549
store 547
mi@@ 545
an@@ 544
trying 544
sand 543
dancing 537
faisant 537
saute 537
ble 535
cheveux 535
jeans 535
regardent 535
coat 534
lit 534
tent 534
walk 533
tout 532
ine 531
mouth 530
foule 527
toy 526
having 523
ô@@ 523
ex@@ 517
terrain 515
plage 513
vert 513
marchant 511
derrière 510
under 510
ire 507
him 503
getting 501
mountain 501
bleue 498
cu@@ 496
ren@@ 493
he 492
line 491
during 490
porte 490
je@@ 487
walks 487
pla@@ 485
match 484
ocean 484
sit 483
singing 481
striped 479
mo@@ 468
neige 466
bal@@ 456
aux 455
look 454
swimming 454
window 454
jumps 451
plusieurs 451
them 451
quelque 449
ba@@ 447
pro@@ 445
pan@@ 444
rose 443
they 443
dark 442
how 442
short 442
&apos;s 441
arrière-plan 440
chose 437
elderly 436
making 436
about 435
ments 432
autres 431
quo@@ 430
filles 429
helmet 429
plays 429
against 428
machine 427
uniform 427
brun 423
shirts 423
haut 422
ice 422
middle 421
sunglasses 421
tenue 421
chair 419
wooden 418
bag 416
ci@@ 416
do@@ 416
el@@ 415
herbe 415
bi@@ 412
at@@ 411
enjoying 411
chiens 410
hockey 410
quatre 410
gr@@ 408
outdoor 407
marchent 406
work 405
past 404
preparing 403
se@@ 403
chapeau 401
frisbee 401
holds 401
watch 398
cart 397
truck 395
floor 394
jump 393
fi@@ 391
laying 391
team 391
bord 389
let 388
com@@ 387
em@@ 385
noire 385
dan@@ 383
mur 383
ville 383
bar 382
sous 382
phone 380
ten@@ 380
fence 379
autour 378
colorful 378
lo@@ 377
hill 375
leurs 375
book 374
public 374
light 372
soleil 372
ur@@ 370
el 369
market 369
balle 367
font 366
instruments 366
outfit 366
police 366
gro@@ 365
statue 365
motorcycle 363
mu@@ 363
trick 363
dame 362
guitare 362
jean 362
there 360
use 360
five 358
inside 358
garçons 356
path 356
clothes 355
painting 354
br@@ 353
kitchen 353
pea@@ 353
worker 352
squ@@ 351
umbrella 351
bat@@ 350
busy 350
parc 350
lu@@ 349
this 349
bois 348
ds 348
night 348
assises 347
metal 347
ride 346
sac 346
ne@@ 345
high 343
swing 343
tan 343
lan@@ 341
ise 340
ready 340
sou@@ 340
instrument 339
cellphone 338
hats 338
bou@@ 337
end 337
trees 336
very 336
scène 335
adults 334
paper 334
track 334
ensemble 333
un@@ 333
cor@@ 332
grassy 332
board 331
marron 331
car@@ 330
lot 330
al@@ 329
covered 329
drinking 328
shopping 328
terre 328
ban@@ 326
ches 324
her@@ 324
shop 323
cap 321
going 319
structure 319
ali@@ 318
runs 318
stick 318
big 317
hold 317
body 315
joueur 315
sweater 315
fo@@ 314
someone 314
banc 313
maillot 313
chan@@ 312
ter@@ 312
gars 311
gri@@ 311
river 310
ors 309
vêtue 309
brick 307
kid 307
ils 306
lake 306
place 306
she 306
towards 306
asiatique 305
bright 305
et@@ 305
leaning 305
costumes 304
event 303
object 303
wave 303
or@@ 301
run 301
girl@@ 300
sleeping 300
ins 299
nei@@ 299
family 298
house 296
watches 296
age 295
catch 295
col@@ 295
ou@@ 295
ting 294
all 293
bu@@ 293
subway 293
tire 293
tête 292
bridge 291
lui 291
music 291
si@@ 291
pl@@ 290
pole 290
tank 290
guys 289
hanging 289
voiture 289
concert 288
pantalon 288
stone 288
dos 287
fire 285
ite 285
racing 285
am@@ 284
res 284
rie@@ 284
gris 283
piece 283
uniforms 283
ai@@ 281
casque 281
ter 281
volleyball 281
toddler 280
fishing 279
très 279
outdoors 278
basket 277
vest 277
dess@@ 275
ap@@ 274
cho@@ 274
er@@ 274
verte 274
open 273
casquette 272
pushing 272
tu@@ 272
full 271
gathered 271
hard 271
selling 271
arts 270
flowers 270
bébé 269
dance 269
ding 269
onto 269
route 269
graffiti 268
others 268
snowy 268
beside 266
guit@@ 266
ut 266
w@@ 266
art 265
colored 265
station 265
above 264
bowling 264
cowboy 264
crowded 264
throwing 263
cam@@ 262
putting 262
cheval 261
gros 261
me@@ 259
p 259
set 259
gne 258
na@@ 258
vêtements 258
ette 257
rope 257
steps 257
tea@@ 256
dr@@ 255
ute 255
bar@@ 254
ling 254
bateau 252
extérieur 252
gear 252
ladies 252
six 252
conversation 251
be@@ 250
backpack 249
grande 249
pendant 249
sautant 249
auto@@ 248
parade 248
cigarette 247
fountain 247
like 247
piste 247
rocks 247
american 246
rouges 245
gentleman 244
magasin 244
ski 244
ture 244
téléphone 244
sable 243
piscine 242
after 241
arms 241
laughing 241
prend 241
animal 240
fe@@ 240
sol 240
der 239
leur 239
champ 238
nourriture 238
stairs 238
slide 237
away 236
beige 236
gi@@ 236
milieu 236
su@@ 236
adult 235
african 235
rides 235
pulling 234
rampe 232
showing 232
courant 231
eux 230
parking 230
setting 230
wood 230
bed 229
shoes 229
surrounded 229
ein@@ 227
chairs 226
ess@@ 226
glass 226
au-dessus 224
computer 223
cutting 223
zone 223
dé@@ 222
equipment 222
irs 222
snowboarder 222
arbre 221
arri@@ 221
gu@@ 221
ramp 221
urr@@ 221
cla@@ 220
corner 220
faire 220
fish 220
m 220
pull 220
cooking 219
flag 219
manteau 219
sem@@ 219
tal@@ 219
ation 218
can@@ 218
chasing 218
fruits 218
parle 218
crossing 217
pictures 217
atten@@ 216
der@@ 216
k 216
party 216
sport 216
forest 215
î@@ 215
passe 214
ps 214
amp 213
arm 213
noirs 213
ac@@ 212
beautiful 212
happ@@ 212
bikini 211
bras 211
jet 211
net 211
pen@@ 211
marathon 210
skateboarder 210
take 210
al 209
driving 209
takes 209
number 208
couch 207
fon@@ 207
journée 207
midair 207
pre@@ 207
rider 207
view 207
courent 206
drink 206
swinging 206
blancs 205
gathering 205
giving 205
ly 205
mother 205
sh@@ 205
blonde 204
h@@ 204
ni@@ 204
surfer 204
dra@@ 203
point 203
visage 203
woods 203
ent@@ 202
for@@ 202
wear 202
contre 201
plaid 200
trail 200
vieil 200
beer 199
ces 199
per@@ 199
shirtless 199
yard 199
âgé 199
ée 199
way 198
bikes 197
bra@@ 197
fruit 197
between 196
e-@@ 196
photos 196
tables 196
vehicle 196
dock 195
per 195
vests 195
arti@@ 194
souriant 194
équipe 194
bags 193
concrete 193
plastic 193
cream 192
get 191
hi@@ 191
show 191
students 191
vil@@ 191
attempting 190
cro@@ 190
ger 190
j@@ 190
portable 190
salle 190
vio@@ 190
micro 189
sourit 189
sun 189
time 189
attire 188
cs 188
flying 188
lying 188
pu@@ 188
bri@@ 187
k@@ 187
practicing 187
ser@@ 187
playground 186
tall 186
cleaning 185
océan 185
tri@@ 185
all@@ 184
box 184
cliff 184
eh@@ 184
sp@@ 184
th@@ 184
verse 184
base 183
bat 183
friends 183
mains 183
sweatshirt 183
app@@ 182
edge 182
grill 182
king 182
sur@@ 182
fra@@ 181
montagne 181
oc@@ 181
sunny 181
val 181
competing 180
g 180
par-dessus 180
polo 180
ct@@ 179
surf 179
chemin 178
figure 178
skateboarding 178
cars 177
color@@ 177
items 177
pile 177
sky 177
sort 177
ton 177
cross 176
kicking 176
moto 176
new 176
cinq 175
foot 175
speaking 175
arbres 174
cake 174
entre 174
fleurs 174
leaves 174
ven@@ 174
clown 173
skate 173
staring 173
toward 173
bull 172
cuisine 172
ir@@ 172
scooter 172
ées 172
vendor 171
distance 170
golf 170
microscope 170
school 170
smiles 170
jeu 169
kissing 169
martial 169
seated 169
smoking 169
coffee 168
tente 168
ures 168
cher 167
plein 167
shore 167
skirt 167
travaille 167
âgée 167
attra@@ 166
cement 166
char@@ 166
cra@@ 166
papier 166
bain 165
beard 165
flower 165
horses 165
jersey 165
shot 165
winter 165
adul@@ 164
café 164
gla@@ 164
marché 164
met 164
où 164
sal@@ 164
sea@@ 164
travers 164
cycli@@ 163
ge@@ 163
plan@@ 163
és 163
biker 162
bl@@ 162
fighting 162
pointing 162
sculpture 162
ad@@ 161
flags 161
make 161
tunnel 161
drums 160
fla@@ 160
ha@@ 160
led 160
roller 160
roof 160
t-shirts 160
2 159
beaucoup 159
buildings 159
can 159
left 159
ong@@ 159
parlant 159
qui@@ 159
bottle 158
sliding 158
chef 157
els 157
plan 157
produ@@ 157
scarf 157
sh 157
après 156
ges 156
listening 156
tenues 156
door 155
lined 155
mpe 155
painted 155
trampoline 155
vegetables 155
attraper 154
cup 154
filled 154
hit 154
ping 154
arrière 153
goggles 153
quelqu&apos; 153
surfing 153
ari@@ 152
bird 152
f 152
ging 152
meal 152
newspaper 152
nu 152
ou 152
robes 152
vêtus 152
appareil 151
apron 151
balloon 151
jackets 151
jouer 151
just 151
nuit 151
paint 151
position 151
rail 151
sports 151
travaillant 151
tre@@ 151
bathing 150
competition 150
desc@@ 150
fle@@ 150
gas@@ 150
ie@@ 150
jogging 150
joueurs 150
tour 150
bucket 149
cre@@ 149
bre@@ 148
dresses 148
jouet 148
kneeling 148
rain 148
rayé 148
skier 148
bon@@ 147
spectators 147
tiennent 147
tte 147
mountains 146
oranges 146
ouvriers 146
railing 146
scene 146
site 146
blanket 145
camion 145
display 145
don@@ 145
rocky 145
suits 145
bearded 144
go 144
habillé 144
hand@@ 144
ladder 144
planche 144
condu@@ 143
débardeur 143
hot 143
safety 143
livre 142
middle-aged 142
musicians 142
ob@@ 142
passing 142
bicycles 141
coming 141
kayak 141
nea@@ 141
stop 141
; 140
blowing 140
bro@@ 140
females 140
gueule 140
helping 140
home 140
performance 140
pièce 140
sen@@ 140
sk@@ 140
ants 139
audience 139
different 139
lawn 139
lei@@ 139
lun@@ 139
parked 139
rivière 139
skating 139
teams 139
américain 138
cl@@ 138
dessus 138
intérieur 138
ted 138
travaillent 138
violet 138
3 137
blanches 137
bleus 137
cur@@ 137
few 137
petits 137
right 137
writing 137
bride 136
ce@@ 136
cycliste 136
desk 136
din@@ 136
facing 136
gli@@ 136
indian 136
pon@@ 136
poses 136
quelques 136
rodeo 136
semble 136
sine 136
sweat 136
adultes 135
gold 135
ke 135
military 135
musique 135
rocher 135
waves 135
wedding 135
balance 134
blo@@ 134
fen@@ 134
op@@ 134
platform 134
surface 134
a-@@ 133
before 133
bowl 133
ck 133
class 133
ff@@ 133
perform 133
break 132
classroom 132
eyes 132
fenêtre 132
lac 132
throw 132
z@@ 132
bas 131
but 131
chaise 131
danse 131
gloves 131
ler 131
ster 131
tie 131
tion 131
torse 131
various 131
waving 131
younger 131
father 130
hugging 130
min@@ 130
pierre 130
boots 129
fixing 129
maison 129
officer 129
pat@@ 129
runner 129
spectateurs 129
ul@@ 129
wet 129
être 129
both 128
leaping 128
lights 128
photograph@@ 128
pont 128
ring 128
screen 128
b 127
chil@@ 127
drinks 127
gym 127
ls 127
reaching 127
seen 127
utilise 127
violin 127
clôture 126
corde 126
end@@ 126
gra@@ 126
gue 126
ks 126
part 126
purse 126
sing 126
streets 126
surfboard 126
w 126
works 126
chante 125
marches 125
nu@@ 125
plus 125
resting 125
skiing 125
artist 124
image 124
is@@ 124
mat@@ 124
mou@@ 124
objectif 124
ot 124
picking 124
bonnet 123
da@@ 123
elles 123
motocross 123
partici@@ 123
pier 123
sunset 123
ves 123
assi@@ 122
club 122
ju@@ 122
mask 122
men@@ 122
washing 122
action 121
asiatiques 121
barbecue 121
counter 121
dancers 121
diving 121
gilet 121
outfits 121
pass@@ 121
pelouse 121
snowboard 121
blouse 120
cer@@ 120
fl@@ 120
helmets 120
objet 120
pier@@ 120
walkway 120
ating 119
balls 119
bubbles 119
cours 119
empty 119
ker 119
cafe 118
digging 118
fête 118
prenant 118
pri@@ 118
saxophone 118
tan@@ 118
tour@@ 118
which 118
balloons 117
flip 117
glace 117
go@@ 117
hole 117
lon@@ 117
made 117
silver 117
activity 116
balançoire 116
catching 116
cking 116
country 116
gn@@ 116
huge 116
ies 116
musical 116
nearby 116
no 116
performs 116
signs 116
vague 116
alley 115
christmas 115
ction 115
feet 115
ga@@ 115
let@@ 115
males 115
mari@@ 115
meat 115
métro 115
onlookers 115
plate 115
posent 115
asleep 114
ats 114
chariot 114
inter@@ 114
pping 114
singer 114
van 114
wrestling 114
ado@@ 113
ballons 113
cour@@ 113
hiking 113
mirror 113
officers 113
relaxing 113
uses 113
appar@@ 112
drawing 112
festival 112
forêt 112
gent 112
life 112
lle 112
manger 112
montre 112
piano 112
sacs 112
up@@ 112
ani@@ 111
du@@ 111
hoop 111
pass 111
pieds 111
regarder 111
tricks 111
trouve 111
ying 111
balan@@ 110
collar 110
couleur 110
electric 110
escalade 110
ines 110
podium 110
smile 110
when 110
allongé 109
ded 109
giant 109
ordinateur 109
parlent 109
rea@@ 109
stroller 109
sweeping 109
um@@ 109
ated 108
business 108
bâton 108
direction 108
mor@@ 108
photographer 108
pin@@ 108
softball 108
stunt 108
ber@@ 107
briques 107
chaussures 107
famille 107
lea@@ 107
obstacle 107
out@@ 107
rugby 107
ré@@ 107
skis 107
umbrellas 107
urban 107
alone 106
canoe 106
colline 106
comp@@ 106
daughter 106
lots 106
moving 106
mud 106
pot 106
reads 106
traditional 106
brightly 105
chinese 105
church 105
falling 105
goal 105
members 105
multicolored 105
net@@ 105
passent 105
prendre 105
wheel 105
ard 104
bunch 104
escalier 104
leaps 104
quai 104
square 104
toys 104
blond-hair 103
lap 103
longs 103
ort 103
ver 103
video 103
appears 102
cer 102
doorway 102
embra@@ 102
flo@@ 102
graffitis 102
jaunes 102
overlooking 102
sig@@ 102
sses 102
vieux 102
carreaux 101
cri@@ 101
fontaine 101
gather 101
peint 101
sale 101
verre 101
avant 100
casques 100
conversing 100
individuals 100
kick 100
snow@@ 100
splashing 100
stri@@ 100
swim 100
vie@@ 100
vol@@ 100
canapé 99
combinaison 99
dis@@ 99
enneigée 99
hoodie 99
laptop 99
mai@@ 99
pente 99
stra@@ 99
sts 99
style 99
tend 99
bicyclist 98
escalator 98
faces 98
over@@ 98
ph@@ 98
sticks 98
ug@@ 98
wi@@ 98
brunette 97
bruns 97
fun 97
gs 97
hiker 97
hula 97
leg 97
lie@@ 97
low 97
move 97
noires 97
parapluie 97
rolling 97
shoulder 97
talks 97
tube 97
accordion 96
atop 96
bald 96
cloth 96
parmi 96
pond 96
prépare 96
runners 96
tous 96
ati@@ 95
balancing 95
cat 95
cli@@ 95
dont 95
garden 95
gets 95
happy 95
local 95
project 95
shovel 95
sled 95
spe@@ 95
sting 95
telescope 95
alors 94
among 94
ar 94
ch 94
cting 94
drum 94
eil 94
ensoleillée 94
fer@@ 94
headphones 94
observe 94
office 94
opening 94
participating 94
saut 94
teeth 94
tor@@ 94
ate 93
cal 93
checking 93
d-@@ 93
gun 93
musi@@ 93
om@@ 93
ont 93
shaking 93
sorte 93
ste@@ 93
travail 93
tro 93
4 92
attendant 92
bill@@ 92
cette 92
climbs 92
close 92
dam@@ 92
ner 92
pause 92
ser 92
sommet 92
sta@@ 92
sti@@ 92
tattoo 92
upside 92
utilisant 92
vif 92
viol@@ 92
york 92
ade 91
bicyclists 91
bles 91
bleues 91
camouflage 91
cheerleaders 91
ching 91
covering 91
dansent 91
foreground 91
gilets 91
loin 91
magazine 91
pêche 91
stadium 91
teenage 91
traffic 91
ag@@ 90
attendent 90
bouche 90
customers 90
cyclist 90
feu 90
feu@@ 90
mural 90
numéro 90
ouvrier 90
pied 90
same 90
sewing 90
whom 90
barbe 89
bmx 89
descend 89
ets 89
eur 89
gg@@ 89
hose 89
leash 89
leather 89
posant 89
adulte 88
ale 88
attend 88
auss@@ 88
back@@ 88
barefoot 88
blond-haired 88
béton 88
carnival 88
crying 88
im@@ 88
pel@@ 88
performer 88
produce 88
rand@@ 88
sco@@ 88
shallow 88
themselves 88
uniforme 88
vers@@ 88
œ@@ 88
cle 87
desert 87
dirty 87
eu@@ 87
examining 87
fau@@ 87
heads 87
held 87
makeup 87
plants 87
portent 87
ro 87
shoveling 87
tas 87
toit 87
vue 87
vêtues 87
we@@ 87
athlete 86
block 86
bureau 86
frapper 86
genoux 86
hiver 86
karate 86
legs 86
marching 86
moment 86
nombreux 86
nus 86
passant 86
pleine 86
tant 86
teenagers 86
ved 86
wagon 86
airs 85
booth 85
ciel 85
climb 85
cour 85
cyclistes 85
ders 85
gymnast 85
mat 85
panneau 85
photograph 85
plastique 85
sandwich 85
taken 85
trunks 85
turn 85
circle 84
dansant 84
dinner 84
dri@@ 84
eat 84
enjoy 84
ents 84
hammer 84
infant 84
juggling 84
log 84
mer 84
mer@@ 84
mp@@ 84
poli@@ 84
prote@@ 84
proximité 84
père 84
sun@@ 84
crosswalk 83
dancer 83
fans 83
feuilles 83
gate 83
lab 83
lets 83
lunch 83
pes 83
rochers 83
sandals 83
shoe 83
wait 83
yeux 83
û@@ 83
bin@@ 82
carries 82
dark-haired 82
fami@@ 82
form@@ 82
journal 82
ligne 82
lisant 82
oriental 82
ous 82
pancarte 82
trash 82
z 82
als 81
coats 81
cul@@ 81
deep 81
drapeau 81
essayant 81
friend 81
monte 81
moyen 81
mère 81
pitcher 81
pouring 81
sharing 81
spectacle 81
staircase 81
stream 81
tal 81
atta@@ 80
clair 80
golden 80
he@@ 80
hikers 80
jupe 80
lin@@ 80
lone 80
montagnes 80
paddling 80
pit@@ 80
put 80
scen@@ 80
shaving 80
soldiers 80
tier 80
uniformes 80
ched 79
cked 79
cow 79
driver 79
fr@@ 79
fréquentée 79
maillots 79
pedestrians 79
sautent 79
stuffed 79
sécurité 79
traverse 79
vau@@ 79
âge 79
événement 79
ance 78
asiati@@ 78
device 78
défilé 78
ki@@ 78
lance 78
mangeant 78
métallique 78
nombreuses 78
racket 78
salon 78
sed 78
shed 78
sin@@ 78
sweat-shirt 78
&amp; 77
5 77
buying 77
chaises 77
cut 77
grosse 77
gui@@ 77
intersection 77
lift 77
pipe 77
shoulders 77
talk 77
tapis 77
closed 76
discussion 76
dune 76
fallen 76
fauteuil 76
foncés 76
four@@ 76
fu@@ 76
garage 76
har@@ 76
jockey 76
lancer 76
num@@ 76
pousse 76
prepares 76
promène 76
pulled 76
sauter 76
says 76
sings 76
sourient 76
ss 76
straw 76
tage 76
te-@@ 76
underneath 76
vélos 76
bière 75
cher@@ 75
cit@@ 75
coin 75
deck 75
ein 75
floating 75
iti@@ 75
prennent 75
repas 75
rodéo 75
row 75
slope 75
town 75
water@@ 75
af@@ 74
aring 74
arr@@ 74
belle 74
bread 74
chapeaux 74
classe 74
ence 74
not 74
pra@@ 74
rempli 74
seat 74
tasse 74
teenager 74
unifor@@ 74
voitures 74
center 73
chefs 73
clo@@ 73
dort 73
hau@@ 73
nombre 73
operating 73
paved 73
plaza 73
sol@@ 73
animals 72
books 72
brune 72
but@@ 72
comme 72
cyc@@ 72
es@@ 72
habillée 72
help 72
jeux 72
leu@@ 72
musician 72
noël 72
ol@@ 72
picnic 72
poin@@ 72
pper 72
round 72
sentier 72
soldier 72
sto@@ 72
studio 72
toboggan 72
waits 72
xe 72
écrit 72
étant 72
airplane 71
ami@@ 71
balcony 71
baskets 71
blonds 71
carry 71
compétition 71
cricket 71
dd@@ 71
den@@ 71
depuis 71
gre@@ 71
hall 71
ledge 71
légumes 71
nose 71
panier 71
patio 71
sans 71
spi@@ 71
taxi 71
va 71
waters 71
wetsuit 71
wine 71
without 71
ach@@ 70
bikers 70
boxes 70
brushing 70
cane 70
eye 70
formal 70
gauche 70
gers 70
glisse 70
grilling 70
parachute 70
pit 70
poles 70
ppe 70
sell 70
shooting 70
tablier 70
tools 70
win@@ 70
cal@@ 69
clean 69
crouching 69
cyclists 69
inspecting 69
jungle 69
neck 69
obje@@ 69
paysage 69
pp@@ 69
prepare 69
puddle 69
raft 69
rin@@ 69
snowboar@@ 69
ssion 69
student 69
tourists 69
verts 69
vri@@ 69
équilibre 69
aide 68
barbu 68
bent 68
bling 68
bor@@ 68
bur@@ 68
buvant 68
chantant 68
cold 68
coup 68
ement 68
fro@@ 68
gants 68
hu@@ 68
hurdle 68
que@@ 68
rest 68
seau 68
serving 68
ship 68
swe@@ 68
tracks 68
tran@@ 68
below 67
couleurs 67
ct 67
donne 67
dro@@ 67
entouré 67
fight 67
goalie 67
hor@@ 67
ic 67
inflatable 67
item 67
laundry 67
nets 67
pain 67
parents 67
roulant 67
scul@@ 67
sheet 67
spray 67
touching 67
tractor 67
tries 67
vieille 67
wa@@ 67
apprête 66
battent 66
boats 66
bâtiments 66
catches 66
cones 66
exam@@ 66
flies 66
goods 66
groom 66
heavy 66
indi@@ 66
indoor 66
ist 66
jardin 66
longue 66
makes 66
ms 66
pil@@ 66
pilote 66
plane 66
pluie 66
poster 66
riders 66
rocheuse 66
s-@@ 66
sheep 66
skateur 66
swings 66
waterfall 66
wooded 66
wor@@ 66
amis 65
artiste 65
bottes 65
bubble 65
côte 65
doigt 65
drapeaux 65
dre@@ 65
escal@@ 65
fair 65
fingers 65
frappe 65
grise 65
luggage 65
morceau 65
musici@@ 65
native 65
ped 65
porch 65
rowing 65
spect@@ 65
temps 65
ters 65
tool 65
welding 65
âgées 65
1@@ 64
ball@@ 64
bien 64
colorés 64
constru@@ 64
eling 64
ely 64
guard 64
habillés 64
hitting 64
ked 64
pigeons 64
poteau 64
produits 64
racer 64
railroad 64
routine 64
santa 64
shade 64
string 64
traversent 64
vertes 64
véhicule 64
ya@@ 64
2@@ 63
acoustic 63
bending 63
birds 63
climber 63
fal@@ 63
firefighters 63
ger@@ 63
ic@@ 63
lad@@ 63
nap 63
overalls 63
pos@@ 63
ques 63
rassemblent 63
sandy 63
sli@@ 63
ssant 63
tex@@ 63
these 63
throws 63
ume 63
uniform@@ 63
wing 63
ws 63
yer 63
bouteille 62
caméra 62
cheering 62
cted 62
denim 62
dreadlocks 62
fabric 62
falaise 62
fast 62
garbage 62
grocery 62
matching 62
opposing 62
peinture 62
petites 62
plant 62
protective 62
surfeur 62
third 62
tons 62
tur@@ 62
uni@@ 62
well 62
windows 62
airport 61
avoir 61
blocks 61
carriage 61
chevaux 61
cing 61
cks 61
feeding 61
ffe@@ 61
foncé 61
id 61
jerseys 61
landscape 61
leans 61
mange 61
martiaux 61
ming 61
mound 61
même 61
parler 61
play@@ 61
policier 61
promenade 61
préparant 61
roses 61
sea 61
seven 61
snowboardeur 61
space 61
steep 61
surrounding 61
tape 61
tau@@ 61
uti@@ 61
aire 60
arm@@ 60
courses 60
derby 60
ery 60
eurs 60
figures 60
fils 60
fin@@ 60
grand@@ 60
haircut 60
hallway 60
masque 60
multi@@ 60
musiciens 60
nage 60
observing 60
professional 60
sculp@@ 60
see 60
sser 60
swimsuit 60
teacher 60
underwater 60
vendeur 60
vitrine 60
wrapped 60
boule 59
box@@ 59
brush 59
bucking 59
candy 59
cat@@ 59
chers 59
cti@@ 59
fresh 59
gentlemen 59
gum@@ 59
land 59
le-@@ 59
mangent 59
mom 59
neon 59
ning 59
orchestra 59
patient 59
pavement 59
points 59
scaffolding 59
tops 59
wheelchair 59
ze 59
ations 58
boun@@ 58
bs 58
capuche 58
celebrating 58
commercial 58
courtyard 58
cow-boy 58
dining 58
evening 58
flight 58
foreign 58
fri@@ 58
head@@ 58
lire 58
married 58
pas 58
pavée 58
petting 58
rela@@ 58
skirts 58
snowboarding 58
suspended 58
terrasse 58
things 58
tou@@ 58
try 58
y-@@ 58
advertisement 57
arena 57
ayant 57
bil@@ 57
cape 57
chain 57
chantier 57
choir 57
couverture 57
cute 57
espace 57
fall 57
garb 57
german 57
individual 57
japanese 57
leading 57
longues 57
marketplace 57
os 57
palm 57
passes 57
peace 57
penche 57
policeman 57
presentation 57
proje@@ 57
préparent 57
rayée 57
skieur 57
spinning 57
step 57
stool 57
stopped 57
str@@ 57
sw@@ 57
tongue 57
traversant 57
turning 57
vehicles 57
wears 57
backyard 56
bank 56
cage 56
canne 56
clear 56
collier 56
comm@@ 56
entra@@ 56
filet 56
frame 56
grands 56
kiss 56
lieu 56
map 56
nature 56
objects 56
orchestre 56
ori@@ 56
ouverte 56
peering 56
peu 56
rivage 56
sha@@ 56
x@@ 56
yoga 56
échelle 56
adolescent 55
attached 55
barri@@ 55
brown-haired 55
bulles 55
bun@@ 55
cen@@ 55
descendant 55
discussing 55
ear 55
fs 55
grinding 55
hay 55
immeuble 55
ings 55
keyboard 55
lifting 55
machines 55
manches 55
matériel 55
money 55
name 55
pizza 55
premier 55
raising 55
shown 55
shows 55
speech 55
sters 55
sticking 55
sweat@@ 55
thrown 55
tile 55
tirant 55
vient 55
écran 55
étendue 55
air@@ 54
allongée 54
apple 54
ates 54
bli@@ 54
bull@@ 54
converse 54
craft 54
différentes 54
dor@@ 54
ful 54
h 54
himself 54
hood 54
khaki 54
lage 54
mani@@ 54
mobile 54
motorcycles 54
pajamas 54
pelle 54
photographe 54
pompiers 54
poussette 54
skate@@ 54
squatting 54
stove 54
tin@@ 54
wal@@ 54
âgés 54
! 53
atv 53
backwards 53
base-ball 53
batterie 53
benches 53
bla@@ 53
boards 53
boxing 53
branches 53
camping 53
cone 53
curb 53
dances 53
discutent 53
droite 53
fer 53
forme 53
gives 53
images 53
los 53
magazines 53
microphones 53
moves 53
para@@ 53
poisson 53
present 53
red-haired 53
referee 53
ropes 53
roule 53
san@@ 53
scuba 53
snow-covered 53
sub@@ 53
summer 53
vagues 53
vend 53
viewing 53
we 53
( 52
amusement 52
avion 52
bottom 52
bouquet 52
cloudy 52
couvert 52
directions 52
ears 52
essaie 52
fe 52
goes 52
good 52
gravel 52
gymna@@ 52
gâteau 52
ille 52
ity 52
laugh 52
mixing 52
model 52
motorcyclist 52
remplie 52
rit 52
say 52
sleeps 52
socks 52
spraying 52
start 52
tar@@ 52
towel 52
village 52
violette 52
vole 52
walls 52
) 51
ballet 51
bars 51
boissons 51
bow 51
cham@@ 51
coach 51
colle@@ 51
coupe 51
couples 51
ert 51
kes 51
lines 51
machinery 51
onn@@ 51
port 51
pulls 51
puppy 51
ran@@ 51
sink 51
sombre 51
stones 51
stretching 51
taureau 51
traverser 51
té 51
violon 51
wed 51
équipes 51
été 51
ales 50
appear 50
ath@@ 50
attention 50
bath 50
beam 50
cascade 50
case 50
centre 50
ck@@ 50
coucher 50
dry 50
floral 50
happily 50
kicks 50
kite 50
live 50
loading 50
location 50
lounging 50
marcher 50
maroon 50
navy 50
nice 50
pal@@ 50
parcours 50
post 50
recouverte 50
sca@@ 50
scra@@ 50
sion 50
spon@@ 50
tub 50
turquoise 50
unique 50
vendant 50
.@@ 49
0 49
0@@ 49
animée 49
bandanna 49
beverage 49
cans 49
cap@@ 49
clients 49
comptoir 49
decorated 49
dish 49
dj 49
dol@@ 49
erie 49
fencing 49
guitarist 49
half 49
ill@@ 49
jam@@ 49
laisse 49
lies 49
living 49
montrant 49
monument 49
pol@@ 49
puck 49
raised 49
scouts 49
shoot 49
sie@@ 49
speaks 49
sporting 49
sted 49
tableau 49
tail 49
ton@@ 49
ty 49
wh@@ 49
3@@ 48
8 48
affiche 48
allée 48
argent 48
banjo 48
boisson 48
boue 48
brea@@ 48
camp 48
cano@@ 48
cir@@ 48
corn 48
cowboys 48
die 48
dishes 48
euse 48
first 48
guitars 48
harness 48
here 48
hillside 48
interacting 48
jumpsuit 48
mariage 48
multiple 48
off@@ 48
onne 48
portrait 48
quad 48
racetrack 48
ribbon 48
shepherd 48
ski@@ 48
soldat 48
starting 48
swimmer 48
tricycle 48
tw@@ 48
voie 48
wire 48
youth 48
ë@@ 48
ally 47
ands 47
attrape 47
backpacks 47
birthday 47
bottles 47
c&apos; 47
card 47
carving 47
checkered 47
ciment 47
co 47
coloré 47
container 47
cordes 47
cravate 47
dents 47
duck 47
ering 47
excit@@ 47
fenced 47
firetruck 47
flipping 47
fond 47
fre@@ 47
handstand 47
heels 47
including 47
instru@@ 47
lar 47
mariée 47
objets 47
oiseau 47
passengers 47
peluche 47
policiers 47
publi@@ 47
read 47
rest@@ 47
sand@@ 47
scent 47
song 47
ssent 47
ssi@@ 47
teaching 47
tending 47
tents 47
th 47
trumpet 47
visible 47
you 47
étudiants 47
ab@@ 46
ante 46
athletes 46
bushes 46
carpet 46
castle 46
chauve 46
closeup 46
disc@@ 46
doctor 46
eight 46
finish 46
hooded 46
jouets 46
joueuse 46
ke@@ 46
lacrosse 46
lane 46
ley 46
library 46
linge 46
long-haired 46
medical 46
muddy 46
ns 46
opposite 46
ore@@ 46
parent 46
pen 46
promenant 46
pé@@ 46
randonnée 46
scope 46
service 46
snack 46
sor@@ 46
surfe 46
swimmers 46
til@@ 46
écharpe 46
-up 45
2012 45
auditorium 45
calf 45
caught 45
chest 45
coureurs 45
crew 45
cuir 45
curly 45
dent 45
drummer 45
ettes 45
fan 45
foulard 45
furniture 45
gam@@ 45
gan@@ 45
gas 45
great 45
miroir 45
oni@@ 45
oping 45
passage 45
pick 45
pins 45
placing 45
protest 45
puts 45
rafting 45
rassemblées 45
receiving 45
recouvert 45
rousse 45
rubber 45
she@@ 45
skiers 45
sm@@ 45
smoke 45
training 45
vegetable 45
vel@@ 45
was 45
électrique 45
5@@ 44
able 44
adolescents 44
aqu@@ 44
arcade 44
army 44
boardwalk 44
bron@@ 44
cker 44
conduit 44
conference 44
coureur 44
cru@@ 44
ctions 44
excited 44
filling 44
folding 44
following 44
funny 44
gle 44
horseback 44
knee 44
london 44
lève 44
mau@@ 44
membres 44
mohawk 44
monsieur 44
motard 44
print 44
rails 44
repairing 44
saw 44
scooters 44
shaped 44
sombr@@ 44
super@@ 44
texas 44
wn 44
ys 44
adjusting 43
arbitre 43
athletic 43
av@@ 43
barrel 43
bear 43
bel@@ 43
chemisier 43
coloring 43
computers 43
dress@@ 43
drives 43
ered 43
fisherman 43
gh@@ 43
hur@@ 43
indoors 43
located 43
mem@@ 43
métal 43
nat@@ 43
ned 43
nel 43
ombre 43
pair 43
paroi 43
pitch 43
plasti@@ 43
pom-pom 43
pped 43
quet 43
ron@@ 43
seats 43
sets 43
soda 43
sword 43
touri@@ 43
traveling 43
trou 43
vement 43
vendors 43
vestes 43
volley 43
wading 43
war@@ 43
wer 43
yo@@ 43
ère 43
4@@ 42
9@@ 42
ards 42
attempts 42
attending 42
bass 42
bathroom 42
bea@@ 42
branch 42
broom 42
buckets 42
chat 42
clay 42
courts 42
discutant 42
emergency 42
entrance 42
factory 42
far@@ 42
firemen 42
free 42
horn 42
hors 42
hotel 42
jette 42
juste 42
laughs 42
leaving 42
material 42
moped 42
mé@@ 42
narrow 42
newborn 42
performers 42
photographs 42
pierres 42
pin 42
polka 42
pou@@ 42
protesting 42
quarterback 42
rink 42
shes 42
skateboards 42
stade 42
suspendu 42
swims 42
tem@@ 42
écouteurs 42
église 42
admiring 41
ages 41
anti@@ 41
ars 41
batter 41
blow 41
boit 41
cardboard 41
ceiling 41
crane 41
cy@@ 41
dire@@ 41
ear@@ 41
finger 41
fire@@ 41
fume 41
hair@@ 41
handing 41
hum@@ 41
jewelry 41
jockeys 41
jumped 41
mall 41
manège 41
motorbike 41
ol 41
plates 41
poussant 41
prairie 41
praying 41
rural 41
ry 41
sandales 41
sent@@ 41
sized 41
sprinkler 41
stati@@ 41
tag 41
taille 41
tat@@ 41
types 41
vil 41
accordéon 40
ad 40
applying 40
appro@@ 40
ary 40
assem@@ 40
biking 40
bin 40
care 40
caucasian 40
chalk 40
cool 40
diri@@ 40
dough 40
en-@@ 40
endroit 40
entre@@ 40
examine 40
fli@@ 40
foot@@ 40
formation 40
fully 40
ght 40
groups 40
habillées 40
hangs 40
hoops 40
hospital 40
ier 40
jusqu&apos; 40
ka@@ 40
kayaks 40
lit@@ 40
museum 40
nighttime 40
opponent 40
pan 40
papers 40
pays 40
practice 40
profonde 40
protection 40
quip@@ 40
salto 40
scenery 40
seul 40
skates 40
sold 40
some@@ 40
termin@@ 40
times 40
tt@@ 40
uns 40
viande 40
vive 40
ères 40
accident 39
batte 39
belt 39
bow@@ 39
bowls 39
browsing 39
canal 39
candles 39
chases 39
college 39
coo@@ 39
courir 39
cup@@ 39
domin@@ 39
désert 39
eaux 39
effectuant 39
emp@@ 39
engine 39
fancy 39
float 39
fly 39
fol@@ 39
give 39
herself 39
hol@@ 39
horizon 39
jambe 39
kaki 39
lamp 39
lining 39
ops 39
order 39
partie 39
past@@ 39
pots 39
pushes 39
rainbow 39
ral 39
représentant 39
rickshaw 39
ruelle 39
sack 39
seems 39
signe 39
slides 39
souriante 39
speed 39
spo@@ 39
sse@@ 39
storefront 39
stroll 39
sure 39
ties 39
tle 39
trucks 39
tuyau 39
vide 39
wheels 39
wide 39
épaules 39
6 38
ator 38
banner 38
barber 38
barrière 38
billboard 38
binoculars 38
bol 38
bran@@ 38
buy 38
caisse 38
cards 38
ced 38
cercle 38
compete 38
dead 38
divers 38
donkey 38
eastern 38
electronic 38
enjoys 38
farm 38
fireman 38
gift 38
hang 38
headband 38
hel@@ 38
jeep 38
keep 38
lasso 38
lifted 38
member 38
motor@@ 38
ornate 38
outstretched 38
part@@ 38
pieces 38
pine 38
plantes 38
pottery 38
presenting 38
quartier 38
reaches 38
rer 38
rough 38
rues 38
security 38
silhouette 38
skater 38
stairway 38
surplombant 38
tattooed 38
television 38
toutes 38
turns 38
uniformed 38
us@@ 38
virage 38
çant 38
ahead 37
bes 37
black@@ 37
bâtons 37
cameras 37
cel@@ 37
cet 37
chinois 37
cle@@ 37
colorée 37
comfor@@ 37
control 37
dit 37
donnant 37
elephant 37
fix 37
flute 37
garden@@ 37
gol@@ 37
got 37
guards 37
guns 37
headscarf 37
houses 37
illes 37
intervie@@ 37
involved 37
job 37
laboratoire 37
long-sleeved 37
menu 37
mit@@ 37
multicolore 37
mustache 37
necklace 37
pillow 37
promènent 37
raquette 37
remorque 37
rou@@ 37
réunis 37
sauvetage 37
sei@@ 37
smo@@ 37
ssed 37
stack 37
stripes 37
studying 37
sty@@ 37
tea 37
theater 37
toi@@ 37
travailler 37
tronc 37
vely 37
voir 37
ward 37
-down 36
accroupi 36
activ@@ 36
approaching 36
attempt 36
backs 36
boîte 36
broken 36
button 36
casino 36
chant 36
coaster 36
combat 36
crafts 36
cérémonie 36
dal@@ 36
dark-skinned 36
debris 36
dge 36
drib@@ 36
eggs 36
either 36
elling 36
engaged 36
entrée 36
escaliers 36
exhibit 36
falls 36
ged 36
go-@@ 36
greyhound 36
grimpe 36
groceries 36
heading 36
helps 36
high-@@ 36
im 36
ique 36
kers 36
kn@@ 36
lay 36
lays 36
lem@@ 36
long@@ 36
meeting 36
met@@ 36
mix@@ 36
more 36
mouvement 36
oms 36
only 36
oth@@ 36
papa 36
participant 36
pic@@ 36
pie@@ 36
piétons 36
profession@@ 36
profitant 36
rangée 36
red-hair 36
rollerblading 36
roulent 36
serve 36
sides 36
silly 36
sofa 36
story 36
tee 36
test 36
tied 36
top@@ 36
tower 36
trans@@ 36
tray 36
vent 36
verti@@ 36
vin 36
vis@@ 36
wheelie 36
énorme 36
épaule 36
1 35
6@@ 35
aisle 35
apartment 35
appe@@ 35
ballerina 35
balustrade 35
barrier 35
basket-ball 35
batteur 35
been 35
bordée 35
bricks 35
carts 35
chase 35
diti@@ 35
done 35
downtown 35
eats 35
ethnic 35
fron@@ 35
fumant 35
gal@@ 35
gazing 35
gymnasium 35
imp@@ 35
iner 35
jack@@ 35
jong@@ 35
karaté 35
learning 35
lecture 35
mal@@ 35
motifs 35
nageant 35
neighborhood 35
paddle 35
photographed 35
produit 35
puppies 35
reach 35
regi@@ 35
repairs 35
repose 35
riant 35
rollers 35
ruisseau 35
sailing 35
science 35
sel@@ 35
semblent 35
sieste 35
sit@@ 35
soit 35
tain 35
temple 35
thers 35
tures 35
télescope 35
unicycle 35
uts 35
vendre 35
weather 35
weaving 35
wheelbarrow 35
wife 35
written 35
zing 35
act 34
aged 34
aller 34
arch@@ 34
banan@@ 34
bandana 34
beverages 34
ca 34
camel 34
campagne 34
cello 34
ceremony 34
chicken 34
craw@@ 34
crayons 34
dad 34
dusk 34
dy 34
effectue 34
entourée 34
escaladant 34
fluffy 34
folded 34
gardien 34
graph@@ 34
gymnase 34
hauts 34
heart 34
heureux 34
hugs 34
intently 34
kayaking 34
keys 34
liqu@@ 34
liquid 34
monopoly 34
motorcyclists 34
nail 34
nettoie 34
nettoyant 34
nez 34
ny 34
odd 34
olympics 34
partially 34
pré@@ 34
pur@@ 34
push 34
rainy 34
reflective 34
repair 34
rient 34
rod 34
roulettes 34
san 34
shining 34
shoppers 34
show@@ 34
skaters 34
soirée 34
solitaire 34
spoon 34
ssing 34
star 34
tackle 34
thumbs 34
tissu 34
touche 34
tourist 34
tout-petit 34
vier 34
voit 34
walmart 34
wrestler 34
-like 33
afro-américain 33
agent 33
and@@ 33
bagpipes 33
barre 33
bite 33
biting 33
blazer 33
bon 33
bondée 33
brosse 33
burgundy 33
cadre 33
care@@ 33
carri@@ 33
catcher 33
chemises 33
clapping 33
comple@@ 33
coté 33
ctors 33
cups 33
descendent 33
diver 33
doigts 33
doll 33
doors 33
enneigé 33
expre@@ 33
fran@@ 33
games 33
glove 33
iron 33
jour 33
ker@@ 33
landing 33
laptops 33
lead 33
lumière 33
lumières 33
mannequin 33
obser@@ 33
ones 33
organi@@ 33
paille 33
participent 33
pli@@ 33
plo@@ 33
poubelle 33
projet 33
roue 33
roux 33
sam@@ 33
sculptures 33
sept 33
shel@@ 33
slo@@ 33
snowsuit 33
spread 33
stance 33
strolling 33
tackling 33
tail@@ 33
tattoos 33
teens 33
tir 33
tomat@@ 33
tropical 33
turned 33
venue 33
visiting 33
voici 33
volley@@ 33
wn@@ 33
xylophone 33
école 33
écoute 33
ë 33
balaie 32
band@@ 32
beneath 32
ber 32
book@@ 32
buffet 32
certains 32
chainsaw 32
chent 32
cobblestone 32
colorées 32
cook 32
coun@@ 32
couper 32
crosses 32
cts 32
cycling 32
dar@@ 32
fake 32
flowered 32
gare 32
gesturing 32
glissant 32
gonflable 32
gymnaste 32
gymnastics 32
halloween 32
homeless 32
indien 32
ité 32
jambes 32
jenga 32
jetée 32
leap 32
logs 32
mettant 32
militaire 32
moti@@ 32
oven 32
paints 32
pantalons 32
parasol 32
peau 32
peeking 32
peignant 32
planting 32
ple@@ 32
pompier 32
rit@@ 32
scu@@ 32
shaved 32
shine 32
sleeveless 32
soldats 32
som@@ 32
sprin@@ 32
steel 32
stic 32
stre@@ 32
stu@@ 32
suitcase 32
telephone 32
tenir 32
tires 32
tossing 32
trains 32
trolley 32
trou@@ 32
têtes 32
utilisent 32
vision 32
wel@@ 32
wning 32
work@@ 32
xi@@ 32
yel@@ 32
équipement 32
afri@@ 31
aquarium 31
are@@ 31
articles 31
batman 31
bout 31
caps 31
company 31
conven@@ 31
coupant 31
creating 31
crouched 31
customer 31
defen@@ 31
dering 31
drill 31
elmo 31
endormi 31
enf@@ 31
enter@@ 31
exercise 31
fabri@@ 31
façade 31
firefighter 31
fresque 31
gril 31
guitariste 31
hautes 31
hotdog 31
hun@@ 31
hydrant 31
individu@@ 31
ites 31
juice 31
kilt 31
kneels 31
lanceur 31
lançant 31
lar@@ 31
lou@@ 31
ma 31
maneu@@ 31
manteaux 31
montant 31
montent 31
mostly 31
naked 31
outils 31
overhead 31
penché 31
ple 31
positi@@ 31
prin@@ 31
randonneur 31
randonneurs 31
rice 31
rollerskating 31
réparer 31
sai@@ 31
scarves 31
screaming 31
shops 31
stes 31
street@@ 31
stru@@ 31
tab@@ 31
talent 31
teal 31
torch 31
trailer 31
transpor@@ 31
turban 31
upon 31
ving 31
wares 31
wild 31
écoutant 31
ét@@ 31
adverse 30
advertising 30
airborne 30
animaux 30
appuie 30
att@@ 30
bagages 30
balcon 30
balding 30
bondé 30
boxer 30
called 30
canoë 30
chess 30
chopping 30
clad 30
cool@@ 30
cou 30
couché 30
da 30
ddle 30
design 30
dimly 30
dust 30
embracing 30
ente 30
ey 30
façon 30
feat@@ 30
fir@@ 30
ft 30
grabbing 30
hal@@ 30
haute 30
hug 30
ing@@ 30
inten@@ 30
ite@@ 30
john 30
kaya@@ 30
lion 30
livres 30
logo 30
loom 30
marteau 30
meet 30
merchandise 30
mid-@@ 30
modern 30
monde 30
movie 30
notes 30
numerous 30
ously 30
ouvre 30
passer 30
plat 30
pop@@ 30
possibly 30
pul@@ 30
q 30
queue 30
raises 30
rassemblés 30
rests 30
ruban 30
sniffing 30
sourire 30
ssé 30
supermarché 30
support 30
target 30
thin 30
tho@@ 30
tos 30
traditionnels 30
travaux 30
tru@@ 30
trunk 30
volant 30
warm 30
waterway 30
ways 30
wires 30
world 30
yarn 30
étang 30
alleyway 29
angle 29
antes 29
arrêt 29
asians 29
athlète 29
autumn 29
basket@@ 29
beg@@ 29
billard 29
bott@@ 29
boulder 29
brandit 29
breakdancing 29
bru@@ 29
casual 29
chantent 29
cherche 29
chewing 29
ché 29
circulation 29
come 29
comment 29
crossed 29
crouches 29
dding 29
directing 29
enne 29
farmer 29
fier 29
forward 29
goat 29
gy@@ 29
hiding 29
hudd@@ 29
hut 29
ient 29
ig@@ 29
incline 29
ined 29
kar@@ 29
kie 29
kit@@ 29
langue 29
laun@@ 29
leaf 29
luge 29
maintenance 29
mati@@ 29
militaires 29
motorized 29
official 29
oiseaux 29
ong 29
ordures 29
paperwork 29
passenger 29
patch 29
pers 29
pinata 29
plateau 29
power 29
profite 29
prêt 29
radio 29
rally 29
rapids 29
sel 29
sele@@ 29
semi-@@ 29
shades 29
sil@@ 29
sorting 29
spar@@ 29
stroke 29
tatouage 29
teammate 29
trip 29
tv 29
vache 29
ven 29
white-@@ 29
wind@@ 29
8@@ 28
adv@@ 28
affrontent 28
am 28
ami 28
angel 28
arre 28
artwork 28
atteindre 28
beu@@ 28
bouncing 28
broch@@ 28
bulldozer 28
burning 28
calm 28
carton 28
cavalier 28
charac@@ 28
chatting 28
chez 28
chin@@ 28
cleans 28
cola 28
comes 28
cuts 28
dou@@ 28
dum@@ 28
em 28
emer@@ 28
entering 28
enthusia@@ 28
ey@@ 28
fac@@ 28
file 28
frappant 28
geant 28
glo@@ 28
grima@@ 28
grin@@ 28
ham@@ 28
hammering 28
hits 28
hop@@ 28
ile 28
knit 28
lie 28
lounge 28
mark 28
milit@@ 28
monticule 28
mop 28
newspapers 28
nurses 28
offi@@ 28
orn@@ 28
our 28
pack 28
passerelle 28
pigeon 28
pilot 28
pique-nique 28
pirate 28
piéton 28
played 28
posed 28
publique 28
quant 28
record 28
redheaded 28
remo@@ 28
rise 28
seule 28
shape 28
shi@@ 28
shing 28
sho@@ 28
shovels 28
smaller 28
spanish 28
speeding 28
stant 28
stea@@ 28
stomach 28
straight 28
tch 28
teen 28
tentent 28
tourne 28
toute 28
umpire 28
unk 28
urbain 28
voile 28
waterfront 28
zed 28
éclaboussures 28
éloigne 28
accor@@ 27
also 27
amusent 27
ang@@ 27
arme 27
balai 27
bamboo 27
bit 27
blankets 27
boarding 27
brother 27
button@@ 27
ce-@@ 27
chalkboard 27
chanteur 27
cheek 27
chevauche 27
clowns 27
couloir 27
countryside 27
couverte 27
deli@@ 27
drawn 27
drive 27
dun@@ 27
dusty 27
dîner 27
facility 27
finishing 27
fort 27
fur 27
gallery 27
harmonica 27
headed 27
if 27
iling 27
illumin@@ 27
ining 27
injured 27
inspe@@ 27
ky 27
mag@@ 27
medi@@ 27
mming 27
monitor 27
motos 27
musicien 27
numbers 27
on-@@ 27
oreilles 27
parapluies 27
parasailing 27
pattes 27
pavé 27
peut-être 27
pick@@ 27
pillows 27
plu@@ 27
pois 27
rayures 27
rec@@ 27
recei@@ 27
rings 27
roun@@ 27
section 27
serviette 27
shadows 27
sive 27
sledding 27
smokes 27
sneakers 27
speaker 27
stepping 27
surgery 27
task 27
tights 27
tirer 27
touristes 27
troisième 27
tutu 27
used 27
vidéo 27
vtt 27
wakeboard 27
wings 27
wra@@ 27
wrap 27
ï@@ 27
9 26
alimentaire 26
ambulant 26
amusant 26
ant@@ 26
arch 26
attentivement 26
bare 26
beanie 26
bleachers 26
boire 26
bystanders 26
cadeau 26
canvas 26
celebration 26
checkers 26
contraption 26
cow@@ 26
creek 26
danser 26
danseuse 26
department 26
descendre 26
différents 26
diner 26
displaying 26
dive 26
dot 26
dumpster 26
europe 26
exerci@@ 26
exposition 26
farmers 26
fashioned 26
finished 26
flaque 26
flip-flops 26
foncée 26
gardening 26
gathers 26
gou@@ 26
highway 26
hike 26
ily 26
inc@@ 26
ities 26
joyeusement 26
ki 26
lampe 26
lau@@ 26
laundromat 26
leggings 26
legos 26
lers 26
link 26
load 26
mais 26
mettre 26
mexican 26
mid 26
moto@@ 26
mug 26
my 26
olo@@ 26
overweight 26
parachut@@ 26
participate 26
plate-forme 26
potato 26
pretty 26
printed 26
pyjama 26
pé 26
racers 26
races 26
radeau 26
rambarde 26
rock@@ 26
rollerblades 26
rub@@ 26
run@@ 26
salopette 26
scaffold 26
sear@@ 26
seem 26
serves 26
shoo@@ 26
shoreline 26
signing 26
siège 26
sks 26
sle@@ 26
snowshoes 26
soap 26
ssage 26
stan@@ 26
state 26
sé@@ 26
talons 26
tentant 26
teur 26
tired 26
toddlers 26
tombe 26
tracteur 26
trav@@ 26
trouvent 26
tt 26
tted 26
twir@@ 26
ty@@ 26
tying 26
tée 26
verres 26
washer 26
watched 26
élèves 26
acting 25
ait 25
amongst 25
ange 25
artists 25
arène 25
assiette 25
atm 25
backdrop 25
basse 25
bikinis 25
blood 25
boivent 25
bul@@ 25
butterfly 25
cab 25
cally 25
chambre 25
chaussettes 25
check 25
china 25
chips 25
closely 25
conduisant 25
cop 25
côtés 25
descent 25
dia@@ 25
dies 25
dit@@ 25
dormant 25
déserte 25
east 25
embrasse 25
employees 25
employés 25
flips 25
flu@@ 25
focused 25
footballeurs 25
forehead 25
ge-@@ 25
gged 25
hear@@ 25
hoo@@ 25
humide 25
jupes 25
kings 25
knife 25
late 25
lighting 25
love 25
marié 25
messy 25
mic 25
most 25
motion 25
occu@@ 25
odles 25
oned 25
ordinateurs 25
ot@@ 25
paint@@ 25
pancartes 25
pow@@ 25
prepared 25
pris 25
pub 25
publicité 25
pumpkin 25
punch 25
raincoat 25
ram@@ 25
range 25
rassemblement 25
row@@ 25
sawing 25
saxoph@@ 25
scar@@ 25
scre@@ 25
shar@@ 25
sideways 25
slee@@ 25
spir@@ 25
spotted 25
sprayed 25
ssions 25
ssive 25
stares 25
ster@@ 25
stilts 25
strange 25
stump 25
supplies 25
surfant 25
tabouret 25
tered 25
thumb 25
transportant 25
transportation 25
tun@@ 25
um 25
underwear 25
whi@@ 25
won@@ 25
wrestle 25
éclairée 25
11 24
acoustique 24
african-american 24
apprêtant 24
ateur 24
attaché 24
babies 24
badminton 24
balade 24
balles 24
battant 24
blows 24
bongo 24
break@@ 24
buil@@ 24
camionnette 24
cheese 24
cherry 24
circuit 24
clar@@ 24
clavier 24
clim@@ 24
cloth@@ 24
conférence 24
coudre 24
covers 24
ctor 24
decorations 24
destination 24
dragging 24
egg 24
eng@@ 24
explo@@ 24
far 24
fashion 24
fermés 24
feuille 24
film 24
form 24
fréquenté 24
gamin 24
gaz@@ 24
ggy 24
gon 24
gradu@@ 24
green@@ 24
handrail 24
helicopter 24
herbes 24
hills 24
huit 24
inclu@@ 24
jolie 24
kno@@ 24
known 24
lanterns 24
leads 24
lips 24
loo@@ 24
mini-@@ 24
mower 24
mpe@@ 24
murs 24
napping 24
natation 24
newly 24
opy 24
organ@@ 24
ours 24
painter 24
participe 24
pati@@ 24
patterned 24
pent 24
poussière 24
professionnelle 24
protesters 24
punching 24
rebord 24
refle@@ 24
relax 24
rem@@ 24
roadside 24
rooftop 24
rows 24
score 24
second 24
sells 24
sert 24
shakes 24
skills 24
slightly 24
sno@@ 24
sooners 24
sunlight 24
terrier 24
touches 24
tre 24
trottinette 24
ub@@ 24
ues 24
unds 24
vintage 24
vives 24
zes 24
zi@@ 24
acce@@ 23
acrobatic 23
amidst 23
assor@@ 23
attractions 23
automne 23
aéroport 23
bag@@ 23
basketteur 23
bateaux 23
bathtub 23
black-haired 23
blocs 23
blouson 23
booths 23
brillant 23
buissons 23
béret 23
cakes 23
canoes 23
canyon 23
cast 23
chaussée 23
chaîne 23
chevauchant 23
chocolate 23
circular 23
collie 23
congreg@@ 23
cover 23
cut@@ 23
cy 23
dessous 23
dex 23
discuter 23
draw 23
eds 23
eing 23
embrassant 23
filming 23
fisher@@ 23
floo@@ 23
foin 23
footballeur 23
ford 23
fou@@ 23
fun@@ 23
g-@@ 23
gie 23
grab 23
gradins 23
graffiti@@ 23
grandes 23
indienne 23
ini@@ 23
jou@@ 23
jumper 23
kil@@ 23
land@@ 23
larger 23
leotard 23
ler@@ 23
listen 23
listens 23
long-sleeve 23
lumin@@ 23
lèvent 23
marine 23
med 23
mini@@ 23
mixer 23
monkey 23
monter 23
nee@@ 23
oes 23
oper@@ 23
ora@@ 23
ow@@ 23
passersby 23
pigtails 23
placed 23
pointe 23
poissons 23
pop 23
pr@@ 23
products 23
pée 23
quickly 23
recording 23
ressemble 23
retrie@@ 23
rifle 23
répare 23
sail@@ 23
sailboat 23
sapin 23
seattle 23
side@@ 23
similar 23
sn@@ 23
sold@@ 23
soulève 23
stat@@ 23
stores 23
storm 23
sty 23
thin@@ 23
thing 23
tiny 23
tirent 23
tly 23
tournament 23
trashcan 23
treat 23
tribal 23
ung 23
us-@@ 23
vie 23
visages 23
vous 23
weigh@@ 23
whe@@ 23
workout 23
workshop 23
wr@@ 23
yant 23
échafaudage 23
éclairé 23
-colored 22
\ 22
africains 22
aidant 22
aliments 22
allongés 22
appuyé 22
aprons 22
ave 22
bancs 22
berger 22
bly 22
bouteilles 22
brandissant 22
brass 22
breakdance 22
british 22
camels 22
cartes 22
cases 22
casquettes 22
cau@@ 22
cause 22
chopsticks 22
choses 22
chés 22
classic 22
cleaner 22
cloud 22
coa@@ 22
complete 22
cons@@ 22
crates 22
create 22
crow@@ 22
cré@@ 22
danseurs 22
dant 22
ddy 22
deci@@ 22
deer 22
denti@@ 22
desig@@ 22
designs 22
dunk 22
employé 22
envi@@ 22
ep@@ 22
experiment 22
expl@@ 22
fauteuils 22
fell 22
fluo 22
follows 22
fore@@ 22
fountains 22
french 22
frozen 22
furry 22
gant 22
glaces 22
gobelet 22
handed 22
hea@@ 22
highchair 22
hip@@ 22
human 22
identiques 22
individus 22
int 22
jum@@ 22
kick@@ 22
lens 22
levant 22
lobby 22
magnifique 22
manifestation 22
marchandises 22
mel@@ 22
mmed 22
mod@@ 22
morning 22
mouillé 22
mul@@ 22
multicolores 22
n&apos; 22
nettoyer 22
news 22
oire 22
ols 22
orche@@ 22
ouvert 22
paddles 22
patrons 22
pattern 22
pencil 22
perche 22
pict@@ 22
planches 22
plaque 22
popcorn 22
profitent 22
rame 22
rav@@ 22
ressemblant 22
rire 22
saris 22
scending 22
snor@@ 22
sparring 22
ssée 22
stall 22
stare 22
stops 22
superman 22
surfers 22
tackled 22
ten 22
ticket 22
tiled 22
tiré 22
tomber 22
tongs 22
touch 22
tubes 22
two-@@ 22
ultimate 22
ux 22
vacuuming 22
valley 22
vol 22
volkswagen 22
wait@@ 22
waiter 22
wheeler 22
wig 22
zoo 22
7 21
accroche 21
acti@@ 21
adversaire 21
affaires 21
aider 21
allemand 21
alpiniste 21
américains 21
apart 21
approaches 21
bath@@ 21
belongings 21
blue-@@ 21
boarder 21
buried 21
carefully 21
carte 21
celebrate 21
chaussure 21
chée 21
cockpit 21
commence 21
cr@@ 21
cuisinant 21
câlin 21
cônes 21
danseuses 21
decorative 21
deli 21
digital 21
dir@@ 21
dirige 21
discours 21
dormir 21
driveway 21
décor@@ 21
ements 21
entertain@@ 21
eri@@ 21
fedora 21
festi@@ 21
finger@@ 21
flottant 21
foods 21
gazon 21
hind 21
hotdogs 21
icy 21
incendie 21
ish 21
iss@@ 21
jack 21
kiosque 21
knees 21
lant 21
len@@ 21
licking 21
lighted 21
masks 21
meadow 21
measuring 21
miami 21
mir@@ 21
métalliques 21
observes 21
olympic 21
onnée 21
package 21
pathway 21
plafond 21
playfully 21
pleure 21
pocket 21
poodle 21
poutre 21
prêts 21
publicitaire 21
rase 21
regard 21
religious 21
rent 21
ros@@ 21
s. 21
speak 21
spor@@ 21
sprinkl@@ 21
staff 21
still 21
stoop 21
stro@@ 21
synchronized 21
sée 21
tambo@@ 21
teurs 21
them@@ 21
travailleurs 21
tripod 21
uble 21
unusual 21
upset 21
ured 21
utiliser 21
vending 21
victory 21
vitesse 21
walked 21
win 21
wind 21
étranger 21
10 20
acheter 20
affi@@ 20
agitant 20
approche 20
arrow 20
arrête 20
ast 20
athlètes 20
balances 20
beau 20
bicycling 20
bor 20
bordé 20
bra 20
branche 20
bridesmaids 20
brin@@ 20
built 20
bush 20
campfire 20
cartons 20
cent 20
certaines 20
chacun 20
chanter 20
cheer 20
cheerleading 20
combinaisons 20
conductor 20
consisting 20
cuisinier 20
demonstration 20
displayed 20
dives 20
downhill 20
droit 20
ducks 20
dur 20
déjeuner 20
earphones 20
ele@@ 20
embrassent 20
enseigne 20
entraînement 20
establishment 20
fair@@ 20
filets 20
fleur 20
foam 20
foliage 20
frais 20
galerie 20
gray-haired 20
harnais 20
histor@@ 20
horse@@ 20
identi@@ 20
iles 20
illant 20
information 20
interesting 20
involving 20
ipod 20
jongle 20
laboratory 20
lent 20
looked 20
légèrement 20
maid 20
mil@@ 20
miniat@@ 20
mix 20
montrent 20
motards 20
motor 20
mouths 20
mowing 20
nagent 20
nails 20
nam@@ 20
notebook 20
off-@@ 20
oli@@ 20
olympi@@ 20
oreille 20
origine 20
our@@ 20
p-@@ 20
packing 20
pads 20
passagers 20
patinoire 20
photographers 20
poor 20
portables 20
porter 20
posé 20
prise 20
préparer 20
purses 20
rafts 20
re-@@ 20
relea@@ 20
rug 20
récupérer 20
scape 20
sci@@ 20
seafood 20
series 20
shadow 20
share 20
shoe@@ 20
single 20
sièges 20
skinny 20
solo 20
splashed 20
spot 20
spotlight 20
stacked 20
starbucks 20
surf@@ 20
surgical 20
suspenders 20
swor@@ 20
techni@@ 20
tips 20
tramway 20
transit 20
trench 20
télévision 20
underground 20
upward 20
urbaine 20
vaste 20
véhicules 20
vététiste 20
watermelons 20
wea@@ 20
will 20
wrestlers 20
ér@@ 20
ach 19
achetant 19
adverti@@ 19
ajuste 19
alignés 19
america 19
appréciant 19
ara@@ 19
arrive 19
arro@@ 19
automatique 19
barefooted 19
bartender 19
battre 19
begins 19
berry 19
bibliothèque 19
blin@@ 19
boisé 19
c-@@ 19
cabane 19
camera@@ 19
canadian 19
carrier 19
cellphones 19
chaque 19
cigar 19
cigar@@ 19
coiff@@ 19
communi@@ 19
cooks 19
crashing 19
creuse 19
crête 19
curly-haired 19
das 19
del@@ 19
demonstra@@ 19
dessert 19
doré 19
down@@ 19
draped 19
décor 19
electri@@ 19
employee 19
entraîneur 19
envers 19
envoie 19
euses 19
exhi@@ 19
explor@@ 19
faite 19
ff 19
ffe 19
fit@@ 19
flannel 19
foire 19
free@@ 19
froid 19
gaze 19
geo@@ 19
gesture 19
gestures 19
gravier 19
grimpant 19
groupes 19
gée 19
hardwood 19
heureuse 19
iel@@ 19
ility 19
imposant 19
incl@@ 19
issant 19
joy 19
labeled 19
laden 19
las 19
league 19
less 19
lling 19
mcdonal@@ 19
mobil@@ 19
monk 19
moteur 19
much 19
musée 19
navi@@ 19
necklaces 19
nent 19
non 19
nur@@ 19
née 19
observent 19
oil 19
ordering 19
own 19
ox@@ 19
paix 19
pale 19
palet 19
partiellement 19
peindre 19
pneu 19
policemen 19
pom@@ 19
portes 19
post@@ 19
pour@@ 19
ppy 19
press@@ 19
présentation 19
ption 19
puppet 19
puzzle 19
py 19
pâte 19
rapi@@ 19
rapidement 19
recor@@ 19
reposent 19
rist@@ 19
sad 19
scienti@@ 19
scrubs 19
see@@ 19
shiel@@ 19
shift 19
shower 19
sk 19
skyline 19
sla@@ 19
snap 19
social 19
sortant 19
spla@@ 19
spring 19
squeezing 19
stal@@ 19
stry 19
stuff 19
suit@@ 19
sum@@ 19
surroun@@ 19
sy@@ 19
sym@@ 19
ta 19
tambour@@ 19
ther 19
tight 19
toothbrush 19
toucher 19
tug-of-war 19
turkey 19
typing 19
téléphonique 19
usa 19
vaisselle 19
war 19
warming 19
waterskiing 19
wheeled 19
ème 19
œufs 19
œuvre 19
# 18
: 18
abo@@ 18
accroché 18
accroupie 18
africain 18
africaine 18
afro-américaine 18
agenouillée 18
anci@@ 18
angels 18
anniversaire 18
apprêtent 18
arrangement 18
arrêt@@ 18
art. 18
artistes 18
atelier 18
ately 18
attractive 18
badge 18
bassin 18
belts 18
bend 18
bijoux 18
boogie 18
boueuse 18
brief@@ 18
brushes 18
bundle 18
cab@@ 18
candle 18
caresse 18
carnaval 18
casually 18
chanson 18
chanteuse 18
cheerleader 18
cial 18
clouds 18
coiffure 18
collared 18
collection 18
commer@@ 18
consi@@ 18
corps 18
cowgirl 18
cray@@ 18
crowds 18
cône 18
cœur 18
darkened 18
decora@@ 18
dedans 18
dessin 18
diver@@ 18
dle 18
déplace 18
employ@@ 18
enterta@@ 18
entraîne 18
ese 18
eting 18
facial 18
faiblement 18
fat 18
faux 18
griller 18
grimace 18
gt 18
géant 18
haired 18
hammock 18
han@@ 18
harve@@ 18
heavily 18
hen@@ 18
hit@@ 18
hou@@ 18
hôpital 18
ian 18
illent 18
indiens 18
install@@ 18
ires 18
ière 18
journaux 18
kimonos 18
lap@@ 18
lavant 18
life@@ 18
lively 18
lé@@ 18
maisons 18
maman 18
manche 18
maquillage 18
marble 18
mas 18
mascara 18
membre 18
mess 18
mets 18
midst 18
moustache 18
nautique 18
ner@@ 18
ney 18
nine 18
obama 18
ope 18
opération 18
pad 18
palmiers 18
panneaux 18
pant 18
papillon 18
parti@@ 18
partout 18
pay 18
pet 18
places 18
plancher 18
plongeant 18
poitrine 18
pouce 18
professionnel 18
promen@@ 18
protect 18
pt 18
punk 18
purchase 18
pyramid 18
qué 18
reception 18
riot 18
rocheux 18
rugs 18
récipient 18
scientist 18
seagul@@ 18
sent 18
serrant 18
shelf 18
shiny 18
short-haired 18
snowboards 18
splashes 18
strapped 18
striking 18
strugg@@ 18
stuck 18
swan 18
sweeps 18
tails 18
taxis 18
tiss@@ 18
toil@@ 18
tombé 18
torses 18
tress 18
trompette 18
trotting 18
tuni@@ 18
vant 18
vering 18
videota@@ 18
vitre 18
volunte@@ 18
workman 18
yed 18
zer 18
âne 18
él@@ 18
épée 18
éti@@ 18
acrobati@@ 17
adossé 17
afternoon 17
agenouillé 17
ais 17
alling 17
amuse 17
appli@@ 17
asia 17
ative 17
ators 17
attachés 17
atter@@ 17
attrapant 17
aérienne 17
baby@@ 17
ban 17
banners 17
barres 17
beau@@ 17
bir@@ 17
blon@@ 17
blondes 17
boisée 17
boutique 17
brique 17
brouette 17
cabine 17
caisses 17
cale 17
camp@@ 17
caoutchouc 17
cation 17
chin 17
chiot 17
circus 17
cluttered 17
companion 17
completed 17
conducteur 17
couche 17
cross@@ 17
cycle 17
dges 17
displays 17
dom@@ 17
eled 17
elev@@ 17
embrasure 17
ently 17
ep 17
european 17
ffs 17
fields 17
fil 17
flanc 17
fting 17
fusil 17
gon@@ 17
grabs 17
gymnastique 17
gé@@ 17
handle 17
hawaiian 17
headdress 17
holi@@ 17
homemade 17
ill 17
iller 17
industrial 17
inning 17
iné 17
isé 17
iz@@ 17
judges 17
kee@@ 17
khakis 17
lay@@ 17
leopard 17
levé 17
levés 17
lisent 17
loaded 17
marker 17
micros 17
monitors 17
mountainous 17
muzzle 17
muzzled 17
navig@@ 17
neu@@ 17
nous 17
nouveau-né 17
odle 17
ombrelle 17
onné 17
open-@@ 17
oring 17
outil 17
packed 17
padd@@ 17
paniers 17
pet@@ 17
picket 17
plain 17
poil 17
ponytail 17
presents 17
product 17
professor 17
pêcheur 17
quiet 17
railings 17
rang 17
really 17
reposant 17
return 17
road@@ 17
ronment 17
roues 17
ré 17
sant 17
sat@@ 17
scolaire 17
senior 17
shirted 17
skydiving 17
sna@@ 17
souffle 17
stir@@ 17
stor@@ 17
stringed 17
sunbathing 17
swimsuits 17
system 17
table@@ 17
tambour 17
tatouages 17
tching 17
tenu 17
than 17
tic 17
trophy 17
und 17
unes 17
unhappy 17
uring 17
vacuum 17
variety 17
victoire 17
vre 17
vêtement 17
wilderness 17
wit@@ 17
woodland 17
équipements 17
étrange 17
étudiant 17
-covered 16
20@@ 16
accro@@ 16
allongées 16
allum@@ 16
almost 16
amount 16
ancien 16
animé 16
arrivée 16
arrêtent 16
artistique 16
attraction 16
baignoire 16
balcon@@ 16
bande 16
banderole 16
bedroom 16
ben@@ 16
benne 16
beret 16
bré 16
camions 16
canard 16
cell@@ 16
chaude 16
checks 16
château 16
circulant 16
ckets 16
clu@@ 16
clôturée 16
colum@@ 16
columns 16
compet@@ 16
containing 16
cover@@ 16
craie 16
crème 16
crépuscule 16
dames 16
dinosau@@ 16
dly 16
décontractée 16
découpe 16
déguisés 16
earth 16
ei@@ 16
ends 16
every@@ 16
examinant 16
fanfare 16
feath@@ 16
fin 16
fish@@ 16
floats 16
flot@@ 16
flûte 16
followed 16
foraine 16
forested 16
fts 16
fumée 16
gage 16
gan 16
ght@@ 16
gown 16
hero 16
honneur 16
iers 16
india 16
infla@@ 16
inspecte 16
isent 16
iser 16
island 16
iste 16
iting 16
je 16
jogg@@ 16
k-@@ 16
karat@@ 16
kiosk 16
kisses 16
ko@@ 16
lam@@ 16
laverie 16
legged 16
lifts 16
ll@@ 16
loa@@ 16
marbre 16
marquer 16
mascot 16
mate 16
maïs 16
mb@@ 16
medium 16
moderne 16
monit@@ 16
moo@@ 16
mounted 16
murky 16
muscular 16
métier 16
nacelle 16
nettoient 16
nourrisson 16
nun 16
né 16
of@@ 16
org@@ 16
pack@@ 16
paire 16
participat@@ 16
percu@@ 16
pipes 16
plante 16
ples 16
plonge 16
plongée 16
pony 16
porte-@@ 16
posés 16
poteaux 16
practices 16
process 16
profe@@ 16
projector 16
prun@@ 16
quat@@ 16
quette 16
rap@@ 16
receveur 16
redhead 16
reflection 16
repor@@ 16
river@@ 16
roller-@@ 16
réparant 16
sail 16
scal@@ 16
scenic 16
scopes 16
seating 16
seaux 16
serre 16
shaggy 16
shake 16
skieurs 16
sleep 16
snacks 16
so 16
soa@@ 16
sortie 16
span@@ 16
star@@ 16
stic@@ 16
stock 16
ston@@ 16
strings 16
stunts 16
tarp 16
tation 16
théâtre 16
toge 16
toges 16
tracksuit 16
traditionnel 16
transport 16
traîneau 16
tuxe@@ 16
unicef 16
upwards 16
vente 16
ventre 16
vit@@ 16
voies 16
volent 16
vé 16
warehouse 16
wash 16
weap@@ 16
weight 16
wer@@ 16
wered 16
who@@ 16
year 16
zombi@@ 16
éc@@ 16
éclabou@@ 16
écossaise 16
écoutent 16
écrivant 16
éloignant 16
équ@@ 16
&apos;t 15
abandoned 15
achète 15
achètent 15
agents 15
agite 15
ameri@@ 15
appareils 15
applaudissent 15
arc-en-ciel 15
arran@@ 15
arrosage 15
asie 15
badauds 15
bandeau 15
bas-côté 15
beads 15
bear@@ 15
bell@@ 15
bloc@@ 15
body@@ 15
bonbons 15
bonnets 15
cade 15
cari@@ 15
ceinture 15
celle 15
cerceau 15
chaud 15
contrôle 15
coéquipier 15
crayon 15
creusant 15
crie 15
crâne 15
day@@ 15
dessinant 15
dirigeant 15
discute 15
documents 15
donner 15
décoré 15
easel 15
eglasses 15
embrasser 15
endor@@ 15
enga@@ 15
engin 15
entraînant 15
escaladent 15
escrime 15
examines 15
extérieure 15
featuring 15
fel@@ 15
fenêtres 15
flotte 15
froide 15
féminin 15
garé 15
gel@@ 15
gement 15
geste 15
gin@@ 15
gravissant 15
greyho@@ 15
gues 15
gé 15
hauteur 15
ili@@ 15
ille@@ 15
immense 15
inspects 15
intére@@ 15
iques 15
ises 15
ka 15
kel 15
key@@ 15
knee-@@ 15
labora@@ 15
laire 15
lampadaire 15
laver 15
leine 15
liquide 15
ly-@@ 15
lèvres 15
mal 15
marked 15
mass@@ 15
may 15
mechani@@ 15
medieval 15
miniature 15
mè@@ 15
médecin 15
newlywed 15
o-@@ 15
om 15
once 15
pagaie 15
parquet 15
passants 15
patin@@ 15
patro@@ 15
penchée 15
plumes 15
pointed 15
politi@@ 15
pops 15
poupée 15
pratiquent 15
prints 15
probablement 15
produisant 15
produisent 15
quement 15
rag 15
rain@@ 15
ramassant 15
refer@@ 15
rouler 15
rush 15
ry-@@ 15
récol@@ 15
réunissent 15
scie 15
semblant 15
sentation 15
servi@@ 15
shawl 15
silhouetted 15
sking 15
sleeves 15
sportif 15
sprays 15
stars 15
steaks 15
stle 15
stream@@ 15
stro 15
supermarket 15
sy 15
tam@@ 15
teammates 15
tech@@ 15
tentes 15
terie 15
thick 15
ti 15
tiger 15
tirée 15
toile 15
topless 15
tourner 15
treadmill 15
trompe@@ 15
tug@@ 15
twister 15
usine 15
valise 15
veau 15
vend@@ 15
voler 15
well-@@ 15
were 15
écartés 15
éch@@ 15
électronique 15
éri@@ 15
évier 15
ù 15
- 14
act@@ 14
ail 14
aires 14
aises 14
alls 14
amie 14
apprécient 14
argenté 14
ascen@@ 14
aspirateur 14
assembl@@ 14
aussi 14
bac 14
bai@@ 14
ballerin@@ 14
barbe@@ 14
batt@@ 14
bers 14
bordeaux 14
borne 14
boueux 14
bout@@ 14
bouée 14
broad 14
bulle 14
cann@@ 14
cerf-volant 14
cess 14
charrette 14
chau@@ 14
check@@ 14
chee@@ 14
cheer@@ 14
chorale 14
claire 14
client 14
collants 14
composé 14
concentr@@ 14
conne@@ 14
construisant 14
contenant 14
contro@@ 14
croix 14
ctive 14
cuire 14
cuisinière 14
câbles 14
daytime 14
don 14
dresse 14
décou@@ 14
dégarni 14
détendent 14
entourés 14
entraînent 14
exten@@ 14
ferrée 14
fit 14
fix@@ 14
forestier 14
frisés 14
gazes 14
geish@@ 14
gent@@ 14
gestes 14
gging 14
gh 14
glacier 14
glacée 14
grille 14
grue 14
guide 14
hap@@ 14
husky 14
i-@@ 14
ight 14
ign@@ 14
illé 14
illés 14
imperméable 14
individu 14
japonais 14
ket@@ 14
lands 14
lequel 14
ligh@@ 14
lt 14
maj@@ 14
micro@@ 14
mitt 14
mon 14
monocycle 14
musta@@ 14
nager 14
nageurs 14
nati@@ 14
neaux 14
nor@@ 14
nou@@ 14
nuageux 14
olympiques 14
onnant 14
opens 14
ore 14
pans 14
partageant 14
partagent 14
patin 14
peaks 14
peints 14
penchant 14
piercing 14
pizzeria 14
plea@@ 14
pneus 14
protéger 14
quel@@ 14
rail@@ 14
rapides 14
raquettes 14
red-@@ 14
resort 14
retournant 14
rollerskates 14
russes 14
rustic 14
région 14
sac@@ 14
sales 14
sans-abri 14
savoure 14
scientifique 14
seur 14
sidelines 14
skateboarders 14
skie 14
skies 14
skul@@ 14
souff@@ 14
sous-@@ 14
spa@@ 14
spat@@ 14
spider@@ 14
surfs 14
tack@@ 14
tags 14
temp@@ 14
the@@ 14
ths 14
tir@@ 14
tière 14
todd@@ 14
tow@@ 14
trem@@ 14
trico@@ 14
tum@@ 14
tés 14
ual 14
university 14
unter@@ 14
v 14
venant 14
vendeurs 14
violets 14
waist 14
washes 14
whilst 14
wood@@ 14
za@@ 14
ène 14
également 14
éléphant 14
œil 14
œuvres 14
12 13
acrobatie 13
aident 13
aise 13
ane 13
armée 13
assiettes 13
ath 13
attente 13
bains 13
baril 13
barre@@ 13
blouses 13
blu@@ 13
blur@@ 13
bm@@ 13
bols 13
bot@@ 13
bougies 13
boul@@ 13
bretelles 13
brillante 13
bum@@ 13
bé@@ 13
bébés 13
caress@@ 13
carrelage 13
challen@@ 13
cherchant 13
chev@@ 13
chie@@ 13
chiots 13
chirur@@ 13
chées 13
cigarettes 13
citi@@ 13
ck-@@ 13
command@@ 13
commencer 13
costum@@ 13
couteau 13
cuillère 13
cycles 13
dessine 13
dig@@ 13
diplô@@ 13
disant 13
disputent 13
diverses 13
document 13
débris 13
départ 13
edly 13
ees 13
eff@@ 13
enta@@ 13
escalader 13
even 13
expression 13
eye@@ 13
fam@@ 13
ferm@@ 13
fic 13
fic@@ 13
fraî@@ 13
garée 13
garés 13
grosses 13
grou@@ 13
ha 13
hy@@ 13
hôtel 13
ind@@ 13
inform@@ 13
intérieure 13
jetant 13
justaucorps 13
key 13
kly 13
kne@@ 13
laires 13
lama 13
lange 13
lass@@ 13
lave 13
leaf@@ 13
lignes 13
londres 13
ly@@ 13
magasins 13
make@@ 13
manifestants 13
maqu@@ 13
march 13
matelas 13
mcdonalds 13
mettent 13
mirro@@ 13
morceaux 13
mountain@@ 13
mousse 13
mouton 13
moutons 13
mouvements 13
musel@@ 13
mé 13
na 13
named 13
navigates 13
ness 13
nude 13
obstacles 13
od 13
onal 13
op 13
orientale 13
paper@@ 13
papi@@ 13
parasols 13
partir 13
perceuse 13
perron 13
peut 13
picks 13
plat@@ 13
pleurs 13
poterie 13
première 13
professeur 13
progra@@ 13
pâle 13
pêchant 13
pêcher 13
quer 13
rai@@ 13
ramasse 13
rant 13
ray@@ 13
rayés 13
retriever 13
reçoit 13
ribb@@ 13
robo@@ 13
roo@@ 13
rés 13
réunion 13
sauvage 13
school@@ 13
servant 13
shout@@ 13
skateboar@@ 13
sl@@ 13
slacks 13
sociali@@ 13
somewhere 13
sons 13
st. 13
stop@@ 13
styli@@ 13
suspen@@ 13
sé 13
tatoué 13
tel@@ 13
tombant 13
tradition@@ 13
télé@@ 13
vibrant 13
vic@@ 13
voy@@ 13
vres 13
wake@@ 13
washington 13
welcome 13
wns 13
zens 13
écrire 13
étoile 13
étran@@ 13
00@@ 12
aband@@ 12
abrupte 12
acro@@ 12
aff@@ 12
alli@@ 12
allure 12
amp@@ 12
américaine 12
ann@@ 12
aqua 12
arche 12
argile 12
as@@ 12
asper@@ 12
attachée 12
aus 12
aut@@ 12
avan@@ 12
ave@@ 12
baguettes 12
baissée 12
balayant 12
bam@@ 12
basketteurs 12
bbing 12
belles 12
bombe 12
bordure 12
bouclés 12
boules 12
bracelet 12
brû@@ 12
bureaux 12
cad@@ 12
caddie 12
canot 12
cas@@ 12
centre-ville 12
chal@@ 12
chass@@ 12
cheurs 12
cible 12
cin@@ 12
cles 12
concentra@@ 12
contrebas 12
cop@@ 12
cornemuse 12
corpulent 12
coups 12
courte 12
couvertures 12
couvre 12
cries 12
croisés 12
crou@@ 12
dau@@ 12
deaux 12
dio 12
disque 12
dorment 12
dorée 12
double 12
dragon 12
dur@@ 12
dé 12
détend 12
elementary 12
engagés 12
entretien 12
essayer 12
eusement 12
exper@@ 12
exposé 12
fashi@@ 12
fig@@ 12
filme 12
fishes 12
flan@@ 12
forces 12
fourrure 12
frère 12
garées 12
glisser 12
golf@@ 12
gos 12
grasp@@ 12
gravit 12
grimaces 12
géante 12
had 12
ham 12
haw@@ 12
herbeux 12
hispani@@ 12
hockeyeurs 12
ical 12
ien 12
impressi@@ 12
indiennes 12
inst@@ 12
ition 12
ized 12
jailli@@ 12
joué 12
juggles 12
jumelles 12
jus 12
kel@@ 12
ken 12
kin 12
laid 12
laine 12
lettres 12
level 12
lin 12
manu@@ 12
mick@@ 12
mo 12
moitié 12
mâ@@ 12
médi@@ 12
nageur 12
nant 12
navigue 12
nin@@ 12
nouvellement 12
nuages 12
page 12
pain@@ 12
papiers 12
parachu@@ 12
parallel 12
patineurs 12
patri@@ 12
patrio@@ 12
pay@@ 12
pee@@ 12
peop@@ 12
perfor@@ 12
pièces 12
plongeoir 12
poignée 12
pomme 12
porche 12
presque 12
pro 12
présente 12
pt@@ 12
pulvéri@@ 12
pun@@ 12
raining 12
rebon@@ 12
rece@@ 12
retourne 12
rollerbla@@ 12
rolls 12
rée 12
sar@@ 12
sement 12
seni@@ 12
separate 12
sky@@ 12
société 12
sombres 12
soude 12
sour@@ 12
sous-vêtements 12
spins 12
spongebo@@ 12
starring 12
statu@@ 12
sten@@ 12
stoc@@ 12
stylo 12
surpoids 12
surveille 12
tain@@ 12
tales 12
tel 12
tendant 12
terri@@ 12
tombée 12
tondeuse 12
travel 12
traî@@ 12
tree-@@ 12
tronçonneuse 12
tter 12
tton 12
under@@ 12
val@@ 12
visi@@ 12
visor 12
vu 12
ym@@ 12
zz@@ 12
éclaboussant 12
éclairage 12
écume 12
élé@@ 12
én@@ 12
éta@@ 12
étreignent 12
étroite 12
,@@ 11
accroupit 11
acier 11
admire 11
adolescente 11
affrontant 11
ailes 11
alignées 11
allant 11
amar@@ 11
apprend 11
appréci@@ 11
arrière-cour 11
artifici@@ 11
asi@@ 11
atif 11
auto 11
automobile 11
avi@@ 11
ba 11
baig@@ 11
ballerine 11
barrières 11
beam@@ 11
beaux 11
bled 11
bodysuit 11
bonne 11
bord@@ 11
busine@@ 11
caf@@ 11
calme 11
cani@@ 11
cavaliers 11
cem@@ 11
chameaux 11
chargement 11
chaî@@ 11
chem@@ 11
chette 11
chu@@ 11
circule 11
clarin@@ 11
colonnes 11
commande 11
conc@@ 11
construire 11
conver@@ 11
convers@@ 11
crée 11
célé@@ 11
den 11
dic@@ 11
dles 11
dor 11
déchets 11
découper 11
déplacent 11
déplaçant 11
embar@@ 11
ena@@ 11
encoura@@ 11
enthousiasme 11
enthousiaste 11
enthousiastes 11
entrer 11
enveloppé 11
environ 11
essentiellement 11
ffy 11
fleurie 11
frap@@ 11
fum@@ 11
ghtly 11
gobelets 11
grav@@ 11
grills 11
gru@@ 11
gymnasti@@ 11
hab@@ 11
hache 11
haie 11
hawk 11
high@@ 11
ics 11
ills 11
imprimé 11
installant 11
intere@@ 11
isi@@ 11
ital@@ 11
itu@@ 11
jogs 11
jonglant 11
joueuses 11
ken@@ 11
lancé 11
low@@ 11
lévriers 11
maybe 11
mcdonald 11
mes@@ 11
metal@@ 11
meubles 11
microscopes 11
mis 11
mitt@@ 11
moder@@ 11
mol@@ 11
montgolfière 11
mord 11
municipal 11
must@@ 11
muzz@@ 11
mélange 11
nombreuse 11
nouveau 11
nuageuse 11
né@@ 11
observant 11
occupe 11
ok 11
ole 11
orient 11
paci@@ 11
pagne 11
paquet 11
parall@@ 11
pedestri@@ 11
peer 11
peignent 11
personnel 11
phase 11
phones 11
piles 11
piét@@ 11
plaqué 11
plats 11
pliante 11
plongeur 11
plupart 11
pommes 11
pons 11
poste 11
posée 11
pouss@@ 11
pousse-pousse 11
poussiéreux 11
pratiquant 11
put@@ 11
pè@@ 11
pées 11
périlleux 11
quar@@ 11
queur 11
ramant 11
rament 11
rassemble 11
rayon 11
recl@@ 11
reflet 11
remplis 11
reposer 11
reste 11
rive 11
saisit 11
sauté 11
sec@@ 11
shing@@ 11
si 11
siti@@ 11
situé 11
sof@@ 11
sortir 11
sparkl@@ 11
spect 11
speeds 11
sprinklers 11
ssés 11
stre 11
stretches 11
stripe 11
strolls 11
surve@@ 11
suspendue 11
série 11
sés 11
teaux 11
tends 11
tery 11
thé 11
tige 11
tisser 11
toilet@@ 11
too 11
tournoi 11
tourné 11
traditionnelle 11
tres 11
trot@@ 11
tuba 11
twi@@ 11
una 11
und@@ 11
ung@@ 11
urer 11
usband 11
vice 11
violettes 11
violoncelle 11
visibles 11
voilier 11
vont 11
writes 11
ysi@@ 11
zen 11
zo@@ 11
échecs 11
écoliers 11
écossais 11
épicerie 11
étoffe 11
étudie 11
acc@@ 10
accom@@ 10
accompani@@ 10
accroupis 10
adjusts 10
adverses 10
afro-américains 10
aine 10
amish 10
amu@@ 10
appuy@@ 10
appuyant 10
argentée 10
armes 10
artifice 10
asphalte 10
atiques 10
attendre 10
balancent 10
bandoulière 10
bascule 10
bb@@ 10
because 10
bends 10
bières 10
blessé 10
bloc 10
bob 10
boo@@ 10
boston 10
boîtes 10
brun@@ 10
bush@@ 10
bét@@ 10
canette 10
capot 10
celui 10
cent@@ 10
chameau 10
champagne 10
charge 10
chariots 10
chasse 10
choisi@@ 10
chop@@ 10
chorégraphie 10
chute 10
citron 10
classi@@ 10
coca-cola 10
cock@@ 10
coiffe 10
collines 10
communic@@ 10
conce@@ 10
concentre 10
concours 10
conta@@ 10
contem@@ 10
contin@@ 10
contr@@ 10
couchée 10
couvrant 10
couvre-chef 10
cture 10
cuisiner 10
curi@@ 10
câ@@ 10
cé 10
decor@@ 10
demonstr@@ 10
deser@@ 10
dev@@ 10
disney 10
distribu@@ 10
dru@@ 10
dy@@ 10
décol@@ 10
dée 10
déf@@ 10
dégu@@ 10
déguisé 10
délabré 10
déploy@@ 10
désor@@ 10
ee 10
ef@@ 10
ell 10
en-dessous 10
ena 10
entreprise 10
environnement 10
er-@@ 10
eries 10
ers@@ 10
es-@@ 10
essaient 10
essaye 10
examinent 10
exer@@ 10
expérience 10
ferme 10
fetti 10
film@@ 10
finir 10
fixes 10
fleuri 10
fois 10
gagner 10
gap 10
genou 10
ghts 10
gratte 10
grill@@ 10
habits 10
hélicoptère 10
ici 10
id@@ 10
illon 10
immeubles 10
ind 10
inspectent 10
joie 10
jump@@ 10
kies 10
kitesurf 10
kl@@ 10
labor@@ 10
labra@@ 10
lat@@ 10
lette 10
letter@@ 10
lever 10
lic 10
lingerie 10
lled 10
lows 10
lum@@ 10
lut@@ 10
lée 10
main@@ 10
mea@@ 10
mers 10
mess@@ 10
middle-@@ 10
mince 10
minivan 10
moyen-orient 10
mule 10
naviguant 10
navire 10
nettoy@@ 10
night@@ 10
nike 10
nis 10
nn@@ 10
nom@@ 10
note 10
nouvelle 10
nœud 10
obscurité 10
offici@@ 10
olive 10
oning 10
open@@ 10
operates 10
ots 10
ouvrant 10
participants 10
passi@@ 10
patau@@ 10
patineur 10
pav@@ 10
peers 10
peinte 10
pellette 10
perdu 10
photographi@@ 10
physi@@ 10
pie 10
pilotes 10
pistolet 10
plaisir 10
poche 10
pointant 10
polit@@ 10
ponch@@ 10
ponton 10
port@@ 10
poser 10
poulet 10
poursuit 10
proche 10
prou@@ 10
préla@@ 10
prépar@@ 10
pum@@ 10
pupitre 10
q@@ 10
quent 10
questi@@ 10
quit@@ 10
rappel 10
raser 10
rate 10
regar@@ 10
religi@@ 10
religieuse 10
renaissance 10
restauration 10
rets 10
reux 10
revêtement 10
robot 10
récu@@ 10
réunies 10
sarcelle 10
sausa@@ 10
sculpt@@ 10
secoue 10
self 10
sements 10
serv@@ 10
seulement 10
shado@@ 10
shoul@@ 10
signalisation 10
siro@@ 10
slip 10
soir 10
sper@@ 10
sportive 10
ssion@@ 10
ssière 10
stac@@ 10
stair@@ 10
store@@ 10
stret@@ 10
stretched 10
suite 10
swim@@ 10
symbol 10
syn@@ 10
tabl@@ 10
tapant 10
technique 10
tendus 10
thor@@ 10
those 10
though 10
tis 10
tissant 10
tond 10
tor 10
torches 10
touchant 10
tranquille 10
travailleur 10
travels 10
triste 10
uk@@ 10
vac@@ 10
vacances 10
vendent 10
viennent 10
vus 10
w-@@ 10
wat@@ 10
wei@@ 10
x-@@ 10
échafaudages 10
échasses 10
écouter 10
écrans 10
émer@@ 10
épais 10
époux 10
étire 10
/ 9
00 9
ace 9
achet@@ 9
ack 9
admir@@ 9
afro@@ 9
agenouillés 9
agricole 9
aju@@ 9
amérique 9
anda 9
appartement 9
appr@@ 9
après-midi 9
asse 9
assistant 9
atique 9
auf@@ 9
aus@@ 9
aver@@ 9
baiser 9
balançant 9
balay@@ 9
bands 9
bannière 9
baseman 9
berge 9
bes@@ 9
billets 9
bizarre 9
bloquer 9
bondit 9
bronz@@ 9
bronze 9
brouillard 9
brow@@ 9
by@@ 9
calèche 9
caméra@@ 9
canards 9
cannes 9
caricature 9
casserole 9
cav@@ 9
ceintures 9
celebra@@ 9
certain 9
champa@@ 9
char 9
cheminée 9
chercher 9
chet 9
chine 9
chinoises 9
chèvre 9
circulent 9
class@@ 9
clean@@ 9
coca 9
coca-@@ 9
col 9
colli@@ 9
competiti@@ 9
complet 9
corpulente 9
couverts 9
cteur 9
curieux 9
curr@@ 9
câble 9
dal 9
deuxième 9
di 9
distributeur 9
douche 9
drop 9
drôle 9
dunking 9
durant 9
déambu@@ 9
débardeurs 9
déci@@ 9
décorations 9
découpant 9
défilent 9
démar@@ 9
effectuent 9
eli@@ 9
empil@@ 9
enneig@@ 9
enter 9
enti@@ 9
entrant 9
entrepôt 9
espagnol 9
ess 9
euro@@ 9
exécutent 9
ez 9
favorite 9
ferrées 9
feux 9
fiel@@ 9
fine 9
flower@@ 9
flânant 9
foc@@ 9
foo@@ 9
foyer 9
fris@@ 9
fromage 9
ful@@ 9
fumer 9
garde 9
ggles 9
gham 9
gie@@ 9
gig@@ 9
glaci@@ 9
gn 9
guitar@@ 9
guitari@@ 9
gum 9
gâteaux 9
gères 9
hamburger 9
handica@@ 9
hin@@ 9
hispan@@ 9
hom@@ 9
horizon@@ 9
hot-dog 9
ht 9
ia 9
icien 9
illa@@ 9
illées 9
impliquant 9
infirmières 9
informatique 9
instructions 9
intense 9
interag@@ 9
intégrale 9
ion 9
ird 9
iro@@ 9
isse 9
itent 9
itt@@ 9
japon@@ 9
jardinage 9
jo 9
jol@@ 9
joli 9
just@@ 9
kayaki@@ 9
kimon@@ 9
lancent 9
lanter@@ 9
lation 9
lean@@ 9
libre 9
lim@@ 9
ll 9
lor 9
lush 9
lévrier 9
mac 9
mach@@ 9
magi@@ 9
maje@@ 9
manifestant 9
mannequ@@ 9
marathoni@@ 9
marchandise 9
mari 9
mechan@@ 9
mine 9
mode@@ 9
moins 9
monospace 9
motori@@ 9
moun@@ 9
mouse 9
moustachu 9
murale 9
médical 9
mée 9
mêmes 9
nappe 9
nation@@ 9
nement 9
nic@@ 9
nuage 9
nue 9
obsta@@ 9
oeu@@ 9
ois 9
oklahoma 9
ond@@ 9
oreillers 9
orig@@ 9
parachutes 9
partition 9
pastèques 9
pedal 9
peignoir 9
pein@@ 9
peintre 9
pel 9
percussion 9
perles 9
perruque 9
pho@@ 9
photographes 9
photographié 9
poign@@ 9
poing 9
portra@@ 9
portraits 9
posées 9
pourchassant 9
pourpre 9
power@@ 9
prix 9
proches 9
prof@@ 9
projecteur 9
pré 9
pti@@ 9
pyjam@@ 9
pâ@@ 9
quoi 9
rapide 9
rasant 9
rassemblant 9
rasé 9
rayées 9
raz@@ 9
read@@ 9
recou@@ 9
rement 9
remplissant 9
remplit 9
renaiss@@ 9
rier 9
ronde 9
rons 9
roul@@ 9
roulants 9
réal@@ 9
réparent 9
sage 9
salu@@ 9
saluant 9
sari 9
saut@@ 9
savourent 9
scout 9
secon@@ 9
serveur 9
servir 9
shy 9
simi@@ 9
skateurs 9
smash@@ 9
sonn@@ 9
soyeux 9
spark@@ 9
speedo 9
spen@@ 9
spot@@ 9
sprink@@ 9
spéci@@ 9
squats 9
ssées 9
structures 9
sui@@ 9
suivant 9
suivent 9
supp@@ 9
surveillent 9
suv 9
sweatshirts 9
sécher 9
tacheté 9
tains 9
tale 9
text 9
texto 9
thro@@ 9
tom@@ 9
tombent 9
tourno@@ 9
transporte 9
trave@@ 9
tresses 9
trombone 9
trouver 9
ttery 9
tz@@ 9
universit@@ 9
util@@ 9
vallée 9
vari@@ 9
vel 9
venir 9
verdoyant 9
verdoyante 9
veston 9
vieilles 9
vin@@ 9
vise 9
vite 9
voil@@ 9
voyage 9
vérifie 9
walk@@ 9
waterski@@ 9
wild@@ 9
woo@@ 9
yama@@ 9
yo 9
ânes 9
èque 9
échauff@@ 9
écol@@ 9
épaisse 9
épouse 9
éventail 9
êt@@ 9
œuf 9
% 8
accep@@ 8
access@@ 8
accompagné 8
accrochant 8
accrochés 8
acrobaties 8
activités 8
ades 8
admirant 8
adolescentes 8
adorable 8
ads 8
agenouille 8
ai 8
aie 8
aient 8
alco@@ 8
ama@@ 8
anim@@ 8
antly 8
appelé 8
applaudit 8
appuyée 8
archite@@ 8
aride 8
armo@@ 8
artisan@@ 8
asphalt 8
ater 8
attache 8
atteint 8
atterrir 8
attle 8
ature 8
au-delà 8
aud@@ 8
autocht@@ 8
bac@@ 8
bal 8
ballerines 8
bambou 8
bandan@@ 8
barbecu@@ 8
barbus 8
base@@ 8
bavar@@ 8
beach@@ 8
beiges 8
bermu@@ 8
bicyclette 8
blement 8
bords 8
bougie 8
boulan@@ 8
bour@@ 8
boxe 8
brillantes 8
brochure 8
brossant 8
buff@@ 8
bunge@@ 8
bâche 8
bû@@ 8
cache 8
cadeaux 8
cahi@@ 8
calmes 8
camer@@ 8
cameraman 8
caniche 8
canoës 8
capit@@ 8
cardigan 8
cass@@ 8
catcheur 8
cave 8
cerceaux 8
chage 8
chain@@ 8
champs 8
chat@@ 8
chement 8
cherchent 8
chic 8
chiff@@ 8
chirurgi@@ 8
chis@@ 8
chocolat 8
châle 8
ci 8
citrouille 8
civ@@ 8
clut@@ 8
clôturé 8
coffre 8
coiffeur 8
collation 8
colorfully 8
commun 8
commun@@ 8
compris 8
conditions 8
confetti 8
confu@@ 8
congre@@ 8
construit 8
consul@@ 8
contenu 8
contra@@ 8
contre@@ 8
contrer 8
convention 8
cookies 8
coupent 8
cow-boys 8
creusent 8
croisées 8
crosse 8
ctant 8
cue@@ 8
cuisinent 8
cuit 8
cular 8
custo@@ 8
cés 8
dark@@ 8
ddles 8
deere 8
demoiselles 8
descen@@ 8
dessins 8
diffic@@ 8
dirig@@ 8
disc 8
discu@@ 8
dition@@ 8
doesn 8
door@@ 8
drainage 8
draws 8
dre 8
dribble 8
dunes 8
débar@@ 8
décolle 8
défen@@ 8
déguisée 8
déjeun@@ 8
déli@@ 8
démonstration 8
dépla@@ 8
détendant 8
effort 8
ek 8
elabo@@ 8
enceinte 8
ences 8
encouragent 8
endroits 8
enfon@@ 8
enjo@@ 8
enlever 8
enlève 8
ental 8
entourant 8
envelop@@ 8
erial 8
eroles 8
escar@@ 8
esp@@ 8
essayent 8
estomac 8
ethni@@ 8
ethnique 8
exercice 8
extre@@ 8
extrémité 8
exécu@@ 8
f-@@ 8
farm@@ 8
fatigué 8
figh@@ 8
filmant 8
filmer 8
fireworks 8
fitness 8
flambo@@ 8
flanelle 8
flânent 8
force 8
former 8
fortune 8
fourgonnette 8
fraîche 8
frisé 8
ft@@ 8
fur@@ 8
ga 8
garde-@@ 8
garder 8
gazonné 8
genouillères 8
gest@@ 8
git@@ 8
gle@@ 8
gor@@ 8
gout 8
goûter 8
grimpent 8
guerre 8
guitares 8
half@@ 8
hamac 8
hell@@ 8
hil@@ 8
hn@@ 8
hon@@ 8
hula-@@ 8
hydr@@ 8
ial 8
iler 8
illing 8
incon@@ 8
infan@@ 8
ingrédients 8
ington 8
inspectant 8
instal@@ 8
inée 8
ior 8
iroquoise 8
itant 8
itation 8
iter 8
itive 8
ivre 8
izing 8
japan 8
jazz 8
jets 8
jewel@@ 8
jogger 8
joy@@ 8
juges 8
kickboxing 8
kin@@ 8
kitchena@@ 8
kitchenaid 8
lable 8
lanternes 8
lapin 8
latex 8
lavent 8
lins 8
lo 8
long-@@ 8
luttent 8
lux@@ 8
lèche 8
manipule 8
manière 8
mant 8
marin 8
marmite 8
maré@@ 8
mates 8
mature 8
maî@@ 8
melon 8
menant 8
message 8
messieurs 8
mickey 8
mie 8
montagneux 8
mounta@@ 8
moyenne 8
muselière 8
musli@@ 8
mut@@ 8
mutuellement 8
mâche 8
mène 8
médiév@@ 8
nap@@ 8
nes@@ 8
neuf 8
noix 8
nommé 8
nourrit 8
obscure 8
occupés 8
officielle 8
officier 8
oklaho@@ 8
olympique 8
ombra@@ 8
ongles 8
operation 8
ordin@@ 8
ored 8
orné 8
ory 8
oun@@ 8
ouverts 8
pagayant 8
pages 8
pai@@ 8
parach@@ 8
park@@ 8
particu@@ 8
passager 8
patiemment 8
patinent 8
patron 8
pauvre 8
peac@@ 8
pellet@@ 8
peloton 8
pers@@ 8
peur 8
ph 8
phin 8
photographier 8
ping-pong 8
pirates 8
plantant 8
plaquer 8
plongeurs 8
plume 8
polos 8
potat@@ 8
pourchassé 8
pours 8
poussent 8
poussiéreuse 8
prepar@@ 8
protège 8
présen@@ 8
présent@@ 8
public@@ 8
pump@@ 8
pâtiss@@ 8
péri@@ 8
quel 8
quilles 8
quitte 8
rab@@ 8
raide 8
reaux 8
red@@ 8
repa@@ 8
retourné 8
reur 8
rière 8
rollerskat@@ 8
rond 8
roulé 8
rurale 8
réception 8
réfléchissant 8
répète 8
saisi@@ 8
salue 8
saluent 8
savon 8
seniors 8
sens 8
separ@@ 8
serveuse 8
services 8
seurs 8
shor@@ 8
short-@@ 8
signes 8
sils 8
sim@@ 8
située 8
ske@@ 8
skiant 8
skil@@ 8
skim@@ 8
sky-@@ 8
slam 8
sme 8
smit@@ 8
speci@@ 8
spee@@ 8
spiderman 8
stationnement 8
statues 8
stique 8
substance 8
sumo 8
survêtement 8
surélevée 8
symbo@@ 8
sèche 8
tabliers 8
tailler 8
tante 8
technolo@@ 8
tendue 8
thedra@@ 8
thou@@ 8
tiers 8
tique 8
tiste 8
titude 8
tomates 8
touriste 8
trafic 8
traînant 8
trol@@ 8
trépied 8
tâche 8
universitaire 8
ups 8
urgence 8
ush 8
vegas 8
vette 8
villa@@ 8
violon@@ 8
visière 8
vitres 8
voyag@@ 8
vro@@ 8
wet@@ 8
wil@@ 8
xes 8
xy@@ 8
yamaha 8
èles 8
écart 8
écla@@ 8
électriques 8
émeute 8
éponge 8
établissement 8
étal 8
étal@@ 8
étreignant 8
étreint 8
-ball 7
-looking 7
-sized 7
accompanied 7
acrobat@@ 7
activities 7
adorned 7
advertisements 7
affe@@ 7
afin 7
agit@@ 7
agri@@ 7
agricul@@ 7
aid 7
ainsi 7
alimentaires 7
allu@@ 7
alpinistes 7
ambu@@ 7
ame 7
amid 7
amies 7
amér@@ 7
angel@@ 7
anneau 7
antique 7
apprenant 7
approchant 7
aquatique 7
arrose 7
arrêté 7
artisanat 7
ascension 7
astro@@ 7
ateurs 7
athle@@ 7
athlétisme 7
atifs 7
ation@@ 7
attelage 7
auge 7
autoroute 7
aving 7
await 7
aéro@@ 7
backpa@@ 7
backseat 7
baisse 7
balais 7
bambin 7
bananas 7
bananes 7
banli@@ 7
barb@@ 7
barely 7
barque 7
barrels 7
bataille 7
bathro@@ 7
battle 7
bay 7
beat 7
beating 7
beers 7
begin 7
bie 7
bit@@ 7
bits 7
blond-@@ 7
blot@@ 7
blower 7
blurred 7
boar@@ 7
boule@@ 7
bounds 7
bows 7
brass@@ 7
bres 7
brum@@ 7
brunes 7
bud@@ 7
buggy 7
bum 7
bund@@ 7
bunny 7
business@@ 7
cades 7
cales 7
cali@@ 7
call 7
cand@@ 7
cannon 7
capped 7
carav@@ 7
cargo 7
carre@@ 7
casting 7
cathédrale 7
cats 7
caucasi@@ 7
celebr@@ 7
cellulaire 7
challenge 7
chandail 7
character 7
chargeant 7
chargé 7
chased 7
chevalet 7
chevau@@ 7
chinatown 7
chon 7
cigare 7
circulaire 7
ckens 7
clair@@ 7
classique 7
clos 7
collègue 7
collègues 7
combattant 7
completing 7
complex 7
composée 7
con 7
conducting 7
construisent 7
contain@@ 7
conte@@ 7
contest 7
cotton 7
coud 7
courbé 7
coussin 7
couver@@ 7
couvercle 7
coéquipiers 7
cram@@ 7
crawls 7
crops 7
crosscountry 7
création 7
créer 7
crê@@ 7
cueille 7
cuisiniers 7
cupcake 7
cupcakes 7
cée 7
célèbre 7
daily 7
dale 7
dan 7
daugh@@ 7
dec@@ 7
defender 7
demande 7
demi-@@ 7
designed 7
desks 7
dessiner 7
deurs 7
dien 7
dig 7
dings 7
dinosaur 7
dinosaure 7
direct@@ 7
discuss 7
doctors 7
dolls 7
donnent 7
doo 7
dotted 7
dramati@@ 7
drap 7
dryer 7
drying 7
dyed 7
déchiré 7
défenseur 7
défilant 7
dés 7
désarç@@ 7
dî@@ 7
ef 7
efs 7
elder 7
emball@@ 7
emment 7
enclume 7
encombrée 7
endre 7
engag@@ 7
enlace 7
ennes 7
enregistre@@ 7
enseignante 7
entertain 7
entourent 7
entourées 7
entrent 7
entée 7
environment 7
equip@@ 7
ere 7
esse 7
essu@@ 7
eté 7
europé@@ 7
exercices 7
exercising 7
exiting 7
experi@@ 7
explosion 7
expéri@@ 7
fabrique 7
face-@@ 7
fati@@ 7
feather 7
features 7
fellow 7
fermier 7
fet@@ 7
fetch 7
feutre 7
ffel 7
figur@@ 7
fill 7
find 7
flammes 7
fle 7
flock 7
flottent 7
fog 7
foggy 7
fonctionner 7
fontaines 7
fork 7
framed 7
franchi@@ 7
fresh@@ 7
frire 7
frustr@@ 7
frying 7
fuzzy 7
fying 7
fémin@@ 7
fér@@ 7
galets 7
gall@@ 7
gaphone 7
gay 7
gel 7
ggling 7
gonflables 7
graffit@@ 7
grattant 7
gravissent 7
gress 7
greyhounds 7
grinds 7
grotte 7
gry 7
gy 7
gés 7
hamburgers 7
harbor 7
haut-de-forme 7
heal@@ 7
herbeuse 7
hispanic 7
hoe 7
hook 7
hors-@@ 7
husband 7
ically 7
iff@@ 7
igh 7
ignant 7
ignent 7
illeux 7
illons 7
illuminated 7
ima@@ 7
iment 7
ina 7
inachev@@ 7
inde 7
inder 7
inent 7
infirmière 7
inféri@@ 7
inging 7
ingly 7
ingredients 7
inhabitu@@ 7
inspect@@ 7
installe 7
interagissent 7
intri@@ 7
ired 7
issent 7
isson 7
isées 7
itali@@ 7
ize 7
javelot 7
jet@@ 7
joh@@ 7
jun@@ 7
kart 7
kilts 7
kitt@@ 7
kni@@ 7
laquelle 7
lateur 7
latin 7
latin@@ 7
lear@@ 7
leot@@ 7
levée 7
libr@@ 7
lime 7
littoral 7
liv@@ 7
lière 7
locomoti@@ 7
lowing 7
lui-même 7
lumineux 7
lutte 7
là 7
lég@@ 7
magnifiques 7
maine 7
mans 7
manœu@@ 7
maquette 7
maquille 7
marchand 7
mariés 7
mascotte 7
masques 7
mauv@@ 7
mcdonald&apos; 7
mec 7
menu@@ 7
meu@@ 7
mexicain 7
mique 7
mitaines 7
mmer@@ 7
mobylette 7
mock 7
modèle 7
monster 7
mop@@ 7
mort 7
motif 7
mouillée 7
muret 7
musc@@ 7
musclé 7
musul@@ 7
mécan@@ 7
mélan@@ 7
mû@@ 7
nattes 7
natu@@ 7
neck@@ 7
neig@@ 7
neuse 7
new@@ 7
niche 7
niveau 7
numérique 7
observer 7
occupent 7
oing 7
oires 7
oles 7
one@@ 7
onze 7
oppos@@ 7
opposé 7
oran@@ 7
oreiller 7
oti@@ 7
ound 7
ouver@@ 7
ouvrir 7
ov@@ 7
pagaient 7
palmier 7
panoram@@ 7
parce 7
patauge 7
patins 7
pelleteuse 7
peluche@@ 7
perché 7
perform@@ 7
personnages 7
peu@@ 7
peuplé 7
pi 7
pilier 7
pinceau 7
plais@@ 7
plateforme 7
pliantes 7
pneum@@ 7
poney 7
porté 7
possession 7
possi@@ 7
poudre 7
poutres 7
poêle 7
prati@@ 7
pratique 7
prie@@ 7
prim@@ 7
prises 7
prochain 7
professionnels 7
prom@@ 7
propane 7
propriéta@@ 7
prête 7
pê@@ 7
pêchent 7
quittant 7
rack 7
rad@@ 7
rallye 7
rappro@@ 7
rassemblée 7
ravin 7
relax@@ 7
remuant 7
rencontre 7
renver@@ 7
renversé 7
restaurant@@ 7
retire 7
rir 7
ritu@@ 7
riz 7
roca@@ 7
rocheuses 7
roll 7
roller@@ 7
rubs 7
runn@@ 7
rées 7
réparations 7
sang 7
scaling 7
secur@@ 7
serrent 7
seu@@ 7
sexy 7
silhouet@@ 7
singe 7
skate-board 7
soigneusement 7
sombrer@@ 7
sortent 7
soulevant 7
sourcils 7
souriantes 7
souriants 7
spea@@ 7
spectacu@@ 7
spectateur 7
sph@@ 7
squir@@ 7
ssa@@ 7
ssen@@ 7
ssy 7
stair 7
stern 7
stiques 7
submer@@ 7
sucette 7
suivi 7
suppor@@ 7
supporters 7
swi@@ 7
synchroni@@ 7
séance 7
tableaux 7
taches 7
taine 7
tatouée 7
terminé 7
tern 7
thered 7
thy 7
tigre 7
tive 7
toe 7
toujours 7
tourn@@ 7
tournage 7
tournant 7
trom@@ 7
troncs 7
trophée 7
trouble 7
tured 7
tutus 7
téléphones 7
ukulele 7
ula 7
uma 7
uri@@ 7
valises 7
vaul@@ 7
vege@@ 7
verdure 7
versant 7
vest@@ 7
visit@@ 7
vitrines 7
voirie 7
vol. 7
vor@@ 7
vée 7
végétation 7
vérifiant 7
wards 7
windo@@ 7
zard 7
zzy 7
âges 7
âtre 7
ça 7
ébroue 7
écar@@ 7
échant@@ 7
échap@@ 7
écharpes 7
éclairages 7
écrasant 7
éjecté 7
éla@@ 7
éle@@ 7
élég@@ 7
élévateur 7
éparp@@ 7
époque 7
éros 7
étage 7
étagère 7
était 7
éteindre 7
étendu 7
étroit 7
étu@@ 7
étudi@@ 7
étudiante 7
ête 7
ôt 7
acci@@ 6
accompag@@ 6
affron@@ 6
africa@@ 6
ak@@ 6
alcool 6
amuser 6
ances 6
ander@@ 6
applaudi@@ 6
appu@@ 6
arabi@@ 6
argent@@ 6
arring 6
ata 6
atrice 6
audi@@ 6
autom@@ 6
aven@@ 6
aéri@@ 6
bass@@ 6
bby 6
beauti@@ 6
bee 6
bing 6
bleu@@ 6
born 6
boss 6
brit@@ 6
bst 6
burger 6
bâ@@ 6
campement 6
camping-@@ 6
canadi@@ 6
canon 6
carou@@ 6
cart@@ 6
cash 6
cathedral 6
ceremon@@ 6
ceremonial 6
chapiteau 6
characters 6
charcu@@ 6
chats 6
chauff@@ 6
checked 6
checkout 6
chirurgiens 6
châ@@ 6
cierge 6
circu@@ 6
ciseaux 6
citizens 6
citrou@@ 6
clap 6
cler@@ 6
climbers 6
close@@ 6
clothed 6
clutching 6
coast 6
coco 6
cocon@@ 6
colliers 6
colonne 6
colorie 6
column 6
combres 6
comman@@ 6
compagnie 6
compe@@ 6
competit@@ 6
completely 6
complexe 6
complè@@ 6
concentré 6
coney 6
confettis 6
congregate 6
connected 6
constructed 6
construite 6
convenience 6
corne 6
cost@@ 6
coupe-vent 6
craft@@ 6
crafting 6
crash 6
crate 6
creates 6
crest 6
criant 6
crocodile 6
crocs 6
cue 6
céré@@ 6
damaged 6
dation 6
dded 6
dem@@ 6
demand@@ 6
dement 6
dered 6
descente 6
deserted 6
designer 6
dessinée 6
deur 6
devan@@ 6
devices 6
dgers 6
différ@@ 6
direct 6
dispositif 6
dojo 6
domino@@ 6
dossard 6
dots 6
dres 6
dressing 6
drome 6
dropping 6
drum@@ 6
due 6
dump 6
début 6
déchargeant 6
décorée 6
déguisées 6
déla@@ 6
détritus 6
ed@@ 6
effectuer 6
eks 6
elaborate 6
electro@@ 6
eles 6
elevated 6
emmitouflé 6
emmène 6
encadr@@ 6
encom@@ 6
encore 6
ender 6
ened 6
enflam@@ 6
enflammés 6
engage 6
enlaçant 6
enseignant 6
entaire 6
entassés 6
entation 6
enthusi@@ 6
entièrement 6
entral 6
entran@@ 6
entraî@@ 6
envoyant 6
essuie 6
ethniques 6
eu 6
eue 6
eure 6
evil 6
examiner 6
exce@@ 6
excitedly 6
exhib@@ 6
expanse 6
expose 6
exposées 6
exposés 6
expressions 6
extra@@ 6
fabriquant 6
fantaisie 6
fea@@ 6
feathered 6
flames 6
flant 6
flat 6
flexi@@ 6
floors 6
flor@@ 6
flowery 6
fluore@@ 6
focus 6
follow 6
fonctionne 6
forestière 6
formations 6
formes 6
fou 6
foulards 6
franç@@ 6
frappé 6
friandise 6
frog 6
furi@@ 6
fy 6
fée 6
gat@@ 6
gau@@ 6
gaz 6
gerie 6
gerly 6
gger 6
ggle 6
gi 6
gling 6
gloved 6
gner 6
goatee 6
gowns 6
gras@@ 6
grasping 6
grat@@ 6
gratuits 6
grillage 6
grimper 6
grès 6
guichet 6
gué 6
hamm@@ 6
handbag 6
handheld 6
harvesting 6
hawaïenne 6
hearts 6
heav@@ 6
heavyset 6
historique 6
hour 6
hula-ho@@ 6
hunched 6
hutte 6
ici@@ 6
ide 6
identical 6
idi@@ 6
ige@@ 6
illed 6
illo@@ 6
impliqués 6
imposante 6
impro@@ 6
in-@@ 6
incluant 6
index 6
industri@@ 6
industriel 6
inf@@ 6
informations 6
inscriptions 6
installée 6
intensément 6
internet 6
interro@@ 6
intes 6
intitul@@ 6
invisible 6
invol@@ 6
isant 6
ised 6
ison 6
itaires 6
itement 6
jave@@ 6
jeter 6
jewish 6
journal@@ 6
jug@@ 6
jugg@@ 6
jumpsuits 6
kara@@ 6
kets 6
kicked 6
kinds 6
knitting 6
ku@@ 6
labrador 6
lait 6
lakers 6
lanc@@ 6
lanes 6
lante 6
lapins 6
lavabo 6
lave@@ 6
law 6
lego 6
length 6
lent@@ 6
les@@ 6
levées 6
liberté 6
licks 6
lied 6
lier 6
lipstick 6
lly@@ 6
locale 6
loupe 6
lour@@ 6
lovely 6
lower 6
lutteurs 6
lyc@@ 6
lé 6
léopard 6
lés 6
mage 6
magni@@ 6
mannequins 6
manuel 6
maquillé 6
mariachi 6
marins 6
marque 6
masculine 6
mask@@ 6
masqu@@ 6
massi@@ 6
memorial 6
menton 6
menus 6
merry-go-round 6
meuble 6
mexi@@ 6
mi-@@ 6
mignon 6
minces 6
mis@@ 6
mise 6
missing 6
mittens 6
mob@@ 6
mode 6
montgolfières 6
mordre 6
mot@@ 6
mots 6
mouettes 6
mountaintop 6
mout@@ 6
mur@@ 6
muslim 6
médecins 6
médicaux 6
mélangeant 6
mê@@ 6
nageuse 6
nament 6
navigable 6
near@@ 6
nearly 6
new-york 6
nightclub 6
ninj@@ 6
nintendo 6
nocturne 6
nom 6
noses 6
nurse 6
observ@@ 6
occasion 6
occur@@ 6
oche 6
off-camera 6
officiers 6
oh 6
ohio 6
ollie 6
ombres 6
oming 6
onary 6
ond 6
one-@@ 6
onner 6
onnes 6
oper 6
operated 6
orangé 6
ordre 6
orned 6
ort@@ 6
outfielder 6
overlook 6
oxford 6
paga@@ 6
paintball 6
paisible 6
paressent 6
parka 6
partage 6
patte 6
pau@@ 6
pauses 6
ped@@ 6
pelle@@ 6
pelles 6
pelling 6
peri@@ 6
perple@@ 6
personnage 6
personnels 6
pets 6
peurs 6
pharmac@@ 6
pid@@ 6
piercings 6
pig@@ 6
pillar 6
pilo@@ 6
piqu@@ 6
pique 6
pira@@ 6
pistes 6
pitching 6
pittoresque 6
plank 6
pleut 6
plongeon 6
plonger 6
poils 6
poker 6
political 6
poncho 6
ponchos 6
pony@@ 6
popu@@ 6
porte-documents 6
porteur 6
post-@@ 6
potier 6
poulets 6
poun@@ 6
poupées 6
pousser 6
powerpoint 6
ppers 6
presen@@ 6
priant 6
pride 6
prient 6
principalement 6
probably 6
prochaine 6
profondes 6
progress 6
projecteurs 6
projection 6
propos 6
proposant 6
propped 6
propre 6
protè@@ 6
provenant 6
prêtre 6
publicités 6
pushed 6
puzz@@ 6
py@@ 6
pyramide 6
pédal@@ 6
pédalant 6
pés 6
quarter@@ 6
quoti@@ 6
quée 6
rac@@ 6
radeaux 6
raise 6
raking 6
ramassent 6
ramasser 6
rampes 6
rasoir 6
rati@@ 6
ravine 6
razor 6
recevant 6
recouvrant 6
rectangu@@ 6
regard@@ 6
regroupés 6
relais 6
relaxes 6
relay 6
reli@@ 6
remettre 6
remplissent 6
reni@@ 6
renifle 6
rentrer 6
repair@@ 6
respecti@@ 6
respon@@ 6
ressemblent 6
revers 6
ribbons 6
rimmed 6
riverbank 6
roche 6
rolled 6
rondes 6
rouille 6
rouillée 6
rubans 6
rug@@ 6
rustique 6
rusty 6
ryth@@ 6
réconfor@@ 6
réfléchi@@ 6
réfléchissants 6
répètent 6
sages 6
saires 6
sample 6
sang@@ 6
saucisses 6
sauna 6
sauvet@@ 6
scattered 6
scissors 6
scoo@@ 6
scooping 6
scrat@@ 6
scri@@ 6
seagulls 6
secouri@@ 6
secours 6
seesa@@ 6
semi 6
serré 6
serviettes 6
shampo@@ 6
shin@@ 6
shingles 6
shooter 6
shouting 6
siff@@ 6
sign@@ 6
silhouettes 6
simultan@@ 6
situation 6
sked 6
skinned 6
skull 6
slal@@ 6
sleeve 6
slopes 6
smash 6
smoo@@ 6
snowball 6
soars 6
sombrero 6
somebody 6
sortes 6
souder 6
soudure 6
soufflant 6
souffleur 6
soulever 6
soup 6
souple 6
south 6
soutien-gorge 6
souvenirs 6
spatula 6
spatule 6
special 6
spots 6
squad 6
ssante 6
ssi 6
stau@@ 6
stent 6
stirring 6
stock@@ 6
strea@@ 6
stride 6
strike 6
strollers 6
stronau@@ 6
stuff@@ 6
suc@@ 6
sueur 6
sundress 6
sunshine 6
sup@@ 6
surfeurs 6
surge@@ 6
surplombe 6
suréle@@ 6
suspendus 6
swords 6
synchronisée 6
sèche-@@ 6
sœur 6
tablecloth 6
taillant 6
take@@ 6
tatoueur 6
techn@@ 6
teddy 6
tee-shirt 6
tell@@ 6
tenter 6
teri@@ 6
terminal 6
terminer 6
texting 6
thoscope 6
thre@@ 6
tickets 6
tim 6
tisse 6
toast 6
toir 6
toirs 6
tomatoes 6
toms 6
touchent 6
tout-@@ 6
tow 6
toyota 6
trace 6
tree-lined 6
tren@@ 6
trench-coat 6
triangle 6
trib@@ 6
tribu 6
tricycles 6
trin@@ 6
trio 6
trop 6
tropicale 6
trébu@@ 6
tu 6
tumbling 6
turbans 6
tuyaux 6
typique 6
tâches 6
télésiège 6
téri@@ 6
ugh 6
umin@@ 6
ump 6
union 6
unloading 6
unusu@@ 6
upright 6
urant 6
usi@@ 6
usly 6
vaches 6
vage 6
veget@@ 6
vention 6
vernis 6
veter@@ 6
vides 6
vietnam@@ 6
vités 6
voc@@ 6
voix 6
volants 6
vraiment 6
vy 6
vé@@ 6
walkers 6
walkie 6
warm@@ 6
wash@@ 6
watering 6
watermel@@ 6
waterside 6
waterskier 6
weapon 6
well-dressed 6
western 6
wheel@@ 6
wheelchairs 6
whis@@ 6
whistle 6
wii 6
wineglasses 6
words 6
woven 6
wraps 6
yst@@ 6
zombie 6
zombies 6
zun@@ 6
zé@@ 6
à@@ 6
çon 6
èche 6
èle 6
èrement 6
éclair@@ 6
écr@@ 6
élastique 6
éloignent 6
élè@@ 6
élégant 6
éléphants 6
épic@@ 6
épées 6
éro@@ 6
étalage 6
état 6
états-unis 6
étend 6
étirant 6
étoffes 6
étoiles 6
êtant 6
ï 6
ñ@@ 6
ôles 6
ûte 6
œurs 6
-skinned 5
50 5
accompan@@ 5
adm@@ 5
admi@@ 5
adver@@ 5
aga@@ 5
agenou@@ 5
alie 5
americ@@ 5
ang 5
appla@@ 5
arrang@@ 5
arriè@@ 5
asphal@@ 5
attentiv@@ 5
audit@@ 5
b-@@ 5
bant 5
barren 5
bom@@ 5
bre 5
brou@@ 5
brown@@ 5
bucks 5
bulldo@@ 5
bus@@ 5
celu@@ 5
cep@@ 5
cers 5
che-@@ 5
ciali@@ 5
cil 5
cob@@ 5
comi@@ 5
complet@@ 5
cor 5
couv@@ 5
couvre-@@ 5
crav@@ 5
crown 5
cé@@ 5
die@@ 5
dins 5
distri@@ 5
donn@@ 5
drag@@ 5
dul@@ 5
eine@@ 5
eleph@@ 5
enla@@ 5
enou@@ 5
enseignes 5
ern@@ 5
fai@@ 5
faç@@ 5
fiques 5
floue 5
friand@@ 5
fru@@ 5
geno@@ 5
gentle@@ 5
gir@@ 5
gre 5
gère 5
hai@@ 5
hat@@ 5
headset 5
herd 5
hill@@ 5
hol 5
hula-hoop 5
hé@@ 5
hôte@@ 5
iage 5
igne 5
illée 5
ilt 5
impri@@ 5
inner@@ 5
int@@ 5
irie 5
isation 5
istes 5
isée 5
jap@@ 5
jog@@ 5
keeper 5
kiste 5
kite@@ 5
kitesur@@ 5
kli@@ 5
l-@@ 5
liquor 5
mail@@ 5
manife@@ 5
manipulant 5
mc@@ 5
mega@@ 5
meter 5
mom@@ 5
mp 5
més 5
nag@@ 5
nage@@ 5
navigu@@ 5
neigh@@ 5
nie 5
nique 5
nit@@ 5
nière 5
nourri@@ 5
oce@@ 5
olli@@ 5
ombrel@@ 5
onloo@@ 5
onnette 5
oo@@ 5
orange-@@ 5
oth 5
passer@@ 5
phants 5
pian@@ 5
pistol@@ 5
poids 5
pon 5
poê@@ 5
professionn@@ 5
propan@@ 5
proté@@ 5
pyrami@@ 5
pér@@ 5
quettes 5
quille 5
randonne@@ 5
rang@@ 5
rasse 5
rempli@@ 5
restaur@@ 5
retourn@@ 5
rette 5
ridor 5
ron 5
rut@@ 5
scaffol@@ 5
sch@@ 5
scop@@ 5
scream@@ 5
session 5
shop@@ 5
shorter 5
similaire 5
skel@@ 5
sma@@ 5
socializing 5
soon@@ 5
sport@@ 5
spr@@ 5
sque 5
ssel 5
ssig@@ 5
sson 5
stand@@ 5
stants 5
stem 5
ston 5
strum@@ 5
surplom@@ 5
tabou@@ 5
taining 5
taper 5
tement 5
teria 5
tha@@ 5
tit 5
tiv@@ 5
tort@@ 5
tronç@@ 5
tumultueuses 5
tut@@ 5
té@@ 5
tél@@ 5
ule 5
video@@ 5
violet@@ 5
von 5
waff@@ 5
whole 5
within 5
xing 5
youn@@ 5
ze@@ 5
ènent 5
électri@@ 5
ément 5
énor@@ 5
équi@@ 5
$ 4
&apos;@@ 4
acks 4
aines 4
align@@ 4
alim@@ 4
alle 4
allem@@ 4
allow 4
alt@@ 4
amm@@ 4
ammer 4
amo@@ 4
ande 4
ange@@ 4
any 4
arbit@@ 4
art@@ 4
artif@@ 4
asp@@ 4
atte@@ 4
au-@@ 4
backflip 4
bagu@@ 4
baller@@ 4
bean@@ 4
bei@@ 4
bies 4
bijou@@ 4
bizar@@ 4
bloo@@ 4
botto@@ 4
brant 4
bret@@ 4
brée 4
butter@@ 4
cana@@ 4
ch-@@ 4
chac@@ 4
chalk@@ 4
chic@@ 4
chino@@ 4
cho 4
chor@@ 4
chur@@ 4
chè@@ 4
clés 4
cobb@@ 4
commen@@ 4
compag@@ 4
concer@@ 4
conditi@@ 4
confor@@ 4
couss@@ 4
cran@@ 4
célè@@ 4
cô@@ 4
de-@@ 4
deau 4
deo 4
desser@@ 4
dim@@ 4
din 4
dispu@@ 4
dread@@ 4
dt 4
dure 4
déser@@ 4
ebr@@ 4
electron@@ 4
eless 4
ellement 4
endent 4
ennent 4
enregi@@ 4
ensole@@ 4
entu@@ 4
eria 4
esa@@ 4
eth@@ 4
ev@@ 4
famili@@ 4
fighter 4
fini@@ 4
flam@@ 4
flé 4
fonc@@ 4
fter 4
gag@@ 4
gar 4
gard@@ 4
geh@@ 4
gen 4
ghters 4
gnes 4
goo@@ 4
goû@@ 4
grim@@ 4
grimac@@ 4
gré@@ 4
guer@@ 4
gueu@@ 4
hambur@@ 4
hard@@ 4
haut-@@ 4
hawaï@@ 4
hollister 4
ids 4
ige 4
illage 4
imm@@ 4
impliqu@@ 4
impre@@ 4
inant 4
ine@@ 4
inline 4
isc@@ 4
isier 4
itting 4
ités 4
ix 4
jail@@ 4
jar@@ 4
jer@@ 4
kitty 4
label@@ 4
labor 4
lars 4
last 4
ld 4
lei 4
lev@@ 4
liber@@ 4
live@@ 4
locks 4
lons 4
loun@@ 4
lè@@ 4
légu@@ 4
machin@@ 4
manipu@@ 4
march@@ 4
marin@@ 4
mart 4
mate@@ 4
melons 4
metri@@ 4
mid@@ 4
miro@@ 4
mmen@@ 4
modi@@ 4
montagne@@ 4
montr@@ 4
ners 4
news@@ 4
note@@ 4
noti@@ 4
nouve@@ 4
nœu@@ 4
od@@ 4
oir 4
orient@@ 4
ota 4
overall 4
pa 4
panda 4
partment 4
pelo@@ 4
performan@@ 4
pher@@ 4
photo@@ 4
pies 4
pizz@@ 4
piè@@ 4
plom@@ 4
plon@@ 4
pok@@ 4
pos 4
pourchass@@ 4
profi@@ 4
profon@@ 4
rais@@ 4
rassembl@@ 4
rect@@ 4
regrou@@ 4
remor@@ 4
rench 4
restaurants 4
reç@@ 4
ried 4
roof@@ 4
rosa@@ 4
rot 4
rot@@ 4
rout@@ 4
réfléchiss@@ 4
répar@@ 4
sandwi@@ 4
sav@@ 4
savour@@ 4
schi@@ 4
scho@@ 4
school-@@ 4
sell@@ 4
sely 4
sh-@@ 4
shir@@ 4
sie 4
skatepark 4
sni@@ 4
sniff@@ 4
spa 4
ss-@@ 4
stap@@ 4
stier 4
stum@@ 4
stun@@ 4
swa@@ 4
sweat-@@ 4
swin@@ 4
synchron@@ 4
team@@ 4
teenager@@ 4
tele@@ 4
tend@@ 4
ther@@ 4
thé@@ 4
tial 4
tigh@@ 4
tine 4
tol@@ 4
tomb@@ 4
track@@ 4
traditionn@@ 4
train@@ 4
trei@@ 4
trottin@@ 4
tting 4
tuellement 4
typi@@ 4
uch 4
uf@@ 4
ukul@@ 4
ulti@@ 4
urg@@ 4
ussion 4
utensi@@ 4
uth 4
vag@@ 4
verdoy@@ 4
vet@@ 4
vir@@ 4
vérifi@@ 4
wand 4
ware 4
well@@ 4
writ@@ 4
xylo@@ 4
ège 4
ébrou@@ 4
échi@@ 4
écou@@ 4
écu@@ 4
égli@@ 4
éte@@ 4
éten@@ 4
étre@@ 4
év@@ 4
ôle 4
-po@@ 3
7@@ 3
ack@@ 3
adi@@ 3
age@@ 3
aison 3
ament 3
anie 3
approa@@ 3
aters 3
athléti@@ 3
attemp@@ 3
aves 3
backp@@ 3
bad 3
balanç@@ 3
bask@@ 3
bati@@ 3
beig@@ 3
bel 3
bele@@ 3
bene@@ 3
bet@@ 3
bicyc@@ 3
blea@@ 3
bracel@@ 3
brand@@ 3
braun 3
brides@@ 3
brille 3
budd@@ 3
by-@@ 3
caban@@ 3
cai@@ 3
capu@@ 3
casi@@ 3
cauc@@ 3
caval@@ 3
cellu@@ 3
cheerleader@@ 3
cheval@@ 3
cht 3
cier@@ 3
circ@@ 3
cket 3
climb@@ 3
clou@@ 3
comb@@ 3
combin@@ 3
confér@@ 3
corn@@ 3
cornem@@ 3
cot@@ 3
coulo@@ 3
countr@@ 3
cow-@@ 3
creu@@ 3
cteurs 3
ctri@@ 3
cté 3
cuill@@ 3
dach@@ 3
danse@@ 3
des@@ 3
differ@@ 3
donal@@ 3
doss@@ 3
dump@@ 3
dures 3
décontract@@ 3
eld 3
emmitou@@ 3
endant 3
entes 3
entr@@ 3
escri@@ 3
espagno@@ 3
essen@@ 3
establi@@ 3
esur@@ 3
ett@@ 3
even@@ 3
ever@@ 3
extré@@ 3
ffre 3
fleur@@ 3
flow@@ 3
focu@@ 3
foli@@ 3
foncti@@ 3
football@@ 3
frei@@ 3
frisbe@@ 3
gages 3
gender 3
gesti@@ 3
ggage 3
gold-@@ 3
gray@@ 3
gul@@ 3
habill@@ 3
habit@@ 3
harna@@ 3
hl 3
hosp@@ 3
hut@@ 3
ica@@ 3
illard 3
indre 3
indu@@ 3
ino@@ 3
inté@@ 3
irts 3
ite-@@ 3
itures 3
jour@@ 3
kal@@ 3
kan@@ 3
kenn@@ 3
ket 3
kic@@ 3
kis 3
kra@@ 3
laces 3
lants 3
lared 3
lettes 3
lings 3
lisse 3
lly 3
lung 3
mainten@@ 3
marath@@ 3
matéri@@ 3
mb 3
mex@@ 3
mexic@@ 3
mexica@@ 3
mly 3
mousta@@ 3
muscu@@ 3
nah 3
neh@@ 3
niture 3
nour@@ 3
nouv@@ 3
numer@@ 3
oed 3
oit 3
ok@@ 3
onnement 3
oph@@ 3
ounds 3
ouse 3
ouv@@ 3
pap@@ 3
paral@@ 3
passag@@ 3
perru@@ 3
phon@@ 3
pilot@@ 3
ping@@ 3
polici@@ 3
princi@@ 3
proxim@@ 3
préci@@ 3
pullover 3
ramass@@ 3
rambar@@ 3
ree 3
regal 3
regen@@ 3
reo@@ 3
représen@@ 3
rested 3
ret 3
rol@@ 3
rying 3
réce@@ 3
récipi@@ 3
récupé@@ 3
sation 3
savou@@ 3
shaw@@ 3
shion 3
shirt@@ 3
sible 3
sil 3
skater@@ 3
smi@@ 3
snea@@ 3
sporti@@ 3
spra@@ 3
spre@@ 3
spring@@ 3
sques 3
ssures 3
stening 3
stin 3
stom@@ 3
strade 3
strin@@ 3
sung 3
suring 3
suspend@@ 3
swee@@ 3
sè@@ 3
tai@@ 3
tamb@@ 3
tatou@@ 3
tee-@@ 3
tem 3
thum@@ 3
timate 3
tory 3
troph@@ 3
trum@@ 3
turn@@ 3
two@@ 3
téléphon@@ 3
térieur 3
ument 3
urba@@ 3
uro 3
urt@@ 3
vacu@@ 3
vacuum@@ 3
velo@@ 3
vern 3
verw@@ 3
veur 3
vra@@ 3
vrant 3
wander@@ 3
wart 3
wel 3
wheelbar@@ 3
willi@@ 3
wrest@@ 3
xe@@ 3
ye 3
ympi@@ 3
zig@@ 3
zu 3
âteau 3
ès 3
écri@@ 3
éje@@ 3
élév@@ 3
équili@@ 3
éra@@ 3
érique 3
évent@@ 3
êtes 3
œur 3
ab 2
abr@@ 2
abri 2
ac 2
accordé@@ 2
accrou@@ 2
achè@@ 2
adju@@ 2
after@@ 2
aids 2
aille 2
aling 2
allong@@ 2
alpin@@ 2
amer@@ 2
ander 2
appel@@ 2
argen@@ 2
aro@@ 2
arrière-@@ 2
aspir@@ 2
asses 2
athlé@@ 2
attend@@ 2
até 2
balu@@ 2
bamb@@ 2
bas-@@ 2
bed@@ 2
bier 2
bikin@@ 2
blou@@ 2
bone 2
bons 2
boo 2
boî@@ 2
bridesm@@ 2
bub@@ 2
bystand@@ 2
bâti@@ 2
bés 2
cami@@ 2
canap@@ 2
cated 2
ceaux 2
chap@@ 2
chauss@@ 2
checker@@ 2
chets 2
chor 2
chs 2
cht@@ 2
chu 2
cident 2
citiz@@ 2
cken 2
college-@@ 2
colo@@ 2
compét@@ 2
corpul@@ 2
coura@@ 2
coéqui@@ 2
ctures 2
cuis@@ 2
cuisin@@ 2
demo@@ 2
demois@@ 2
destin@@ 2
deuse 2
dut@@ 2
dép@@ 2
eine 2
eller 2
enca@@ 2
ench 2
ene 2
enseig@@ 2
entour@@ 2
entraîne@@ 2
entri@@ 2
enté 2
envelo@@ 2
envir@@ 2
envo@@ 2
erer 2
esc@@ 2
espag@@ 2
essenti@@ 2
exerc@@ 2
fantaisi@@ 2
fare 2
feder@@ 2
fee@@ 2
fern 2
fest 2
ffect@@ 2
flau@@ 2
fleuri@@ 2
footed 2
foul@@ 2
fé@@ 2
gency 2
geri@@ 2
gical 2
gies 2
gile 2
golden@@ 2
gorge 2
gran@@ 2
gur@@ 2
harmon@@ 2
hawai@@ 2
hei@@ 2
heu@@ 2
hug@@ 2
héli@@ 2
igeant 2
ign 2
illy 2
immen@@ 2
impermé@@ 2
impos@@ 2
incen@@ 2
indian@@ 2
infir@@ 2
inged 2
inju@@ 2
ino 2
inspec@@ 2
interagi@@ 2
intégra@@ 2
iteau 2
itten 2
iture 2
ivent 2
jama 2
jardin@@ 2
ke-@@ 2
kie@@ 2
kla@@ 2
klein 2
ko 2
kor@@ 2
laborat@@ 2
lace 2
lampada@@ 2
laugh@@ 2
letter 2
ling@@ 2
liqui@@ 2
litt@@ 2
lob@@ 2
loy@@ 2
mann@@ 2
may@@ 2
ment@@ 2
meute 2
mic@@ 2
mitten 2
mité 2
moby@@ 2
mono@@ 2
monticu@@ 2
mun@@ 2
munici@@ 2
muse@@ 2
mél@@ 2
métal@@ 2
nau@@ 2
naval 2
not@@ 2
nouveau-@@ 2
obsc@@ 2
onne@@ 2
onneuse 2
oppon@@ 2
opér@@ 2
or-@@ 2
outf@@ 2
pac@@ 2
pag@@ 2
pajam@@ 2
pal 2
pane 2
pare 2
parks 2
parta@@ 2
patter@@ 2
peaux 2
pette 2
pha@@ 2
phal@@ 2
pics 2
pique-@@ 2
poit@@ 2
police@@ 2
pool@@ 2
pout@@ 2
pret@@ 2
propri@@ 2
pupit@@ 2
pupp@@ 2
pyra@@ 2
quelle 2
rale 2
reau 2
remu@@ 2
respe@@ 2
ressembl@@ 2
restau@@ 2
reuse 2
rib@@ 2
ricksha@@ 2
riers 2
rine 2
rines 2
roll@@ 2
roug@@ 2
ruiss@@ 2
ry@@ 2
réfl@@ 2
régi@@ 2
sauci@@ 2
sax@@ 2
schie@@ 2
seh@@ 2
senti@@ 2
shal@@ 2
sham@@ 2
shepher@@ 2
shou@@ 2
situ@@ 2
slim 2
soc@@ 2
soldi@@ 2
sols 2
sonne 2
spectat@@ 2
spin@@ 2
sque@@ 2
squee@@ 2
ssor 2
stin@@ 2
stron@@ 2
stud@@ 2
sul@@ 2
susp@@ 2
séri@@ 2
tach@@ 2
tank@@ 2
teet@@ 2
tet 2
theat@@ 2
thi@@ 2
ticu@@ 2
tien 2
tin 2
toa@@ 2
tooth@@ 2
tramp@@ 2
transport@@ 2
trava@@ 2
traver@@ 2
treadmi@@ 2
tron@@ 2
tré@@ 2
twe@@ 2
uit 2
ules 2
univer@@ 2
unt 2
unter 2
urgi@@ 2
var@@ 2
vehic@@ 2
veral 2
vibran@@ 2
vét@@ 2
wai@@ 2
wan@@ 2
web@@ 2
wine@@ 2
wir@@ 2
wol@@ 2
zebra@@ 2
échaf@@ 2
écoss@@ 2
élo@@ 2
épai@@ 2
épar@@ 2
équip@@ 2
établ@@ 2
étir@@ 2
êtent 2
ël 2
#@@ 1
&@@ 1
-american 1
-haired 1
-pom 1
= 1
abrup@@ 1
accordi@@ 1
acked 1
ader 1
adolesc@@ 1
afro-@@ 1
again@@ 1
ain@@ 1
aiss@@ 1
alle@@ 1
alter 1
alter@@ 1
américa@@ 1
anni@@ 1
anniver@@ 1
apr@@ 1
après-@@ 1
asien 1
aten 1
ato@@ 1
ats-unis 1
automob@@ 1
bad@@ 1
balanci@@ 1
bau@@ 1
beige@@ 1
berg@@ 1
bik@@ 1
bikini-@@ 1
binocu@@ 1
blue@@ 1
boot 1
buck@@ 1
busin@@ 1
caric@@ 1
cathe@@ 1
ceau 1
cele@@ 1
chaine 1
chall@@ 1
chant@@ 1
cheur 1
chine@@ 1
chir@@ 1
chocola@@ 1
chorégraph@@ 1
chou@@ 1
cils 1
cis@@ 1
cke 1
cker@@ 1
clô@@ 1
cole 1
collè@@ 1
compl@@ 1
concre@@ 1
coure@@ 1
court@@ 1
cowboy@@ 1
craf@@ 1
ctif 1
custom@@ 1
dest 1
det 1
deu@@ 1
diff@@ 1
docum@@ 1
dow 1
dwalk 1
dying 1
déchir@@ 1
décontra@@ 1
effectu@@ 1
eg@@ 1
eins 1
elect@@ 1
elf 1
elier 1
elt 1
ement@@ 1
ende 1
ength 1
ening 1
ense@@ 1
enseign@@ 1
enth@@ 1
erte 1
essay@@ 1
essen 1
etting 1
favor@@ 1
ffee 1
fighters 1
fique 1
flag@@ 1
flops 1
flou@@ 1
footbal@@ 1
fore 1
from@@ 1
fréqu@@ 1
fted 1
galo@@ 1
garni 1
garç@@ 1
get@@ 1
ghter 1
graff@@ 1
gras 1
gratu@@ 1
grave@@ 1
gun@@ 1
halt@@ 1
harmoni@@ 1
hart 1
haut@@ 1
helm 1
hier 1
hin 1
hm@@ 1
hoch@@ 1
hockey@@ 1
horiz@@ 1
hospit@@ 1
hot-@@ 1
hot@@ 1
hout 1
hula@@ 1
humi@@ 1
ices 1
ien@@ 1
igh@@ 1
inage 1
ing-@@ 1
inspi@@ 1
ish@@ 1
ising 1
isir 1
isés 1
itude 1
jamas 1
jeun@@ 1
jock@@ 1
jours 1
jung@@ 1
kio@@ 1
kle@@ 1
lab@@ 1
lang@@ 1
lif@@ 1
lil@@ 1
lév@@ 1
marm@@ 1
mbi@@ 1
medie@@ 1
mel 1
mering 1
midd@@ 1
mier 1
miers 1
mig@@ 1
mill 1
mit 1
mières 1
model@@ 1
monie 1
monocyc@@ 1
mont@@ 1
moy@@ 1
moyen-@@ 1
nack@@ 1
nex@@ 1
ni 1
nier 1
oba@@ 1
océ@@ 1
offen@@ 1
oking 1
onnel 1
onnet 1
outfiel@@ 1
outi@@ 1
ow 1
panse 1
paress@@ 1
pe-@@ 1
peig@@ 1
pelu@@ 1
perc@@ 1
personn@@ 1
peupl@@ 1
pink-@@ 1
pink@@ 1
pir@@ 1
pist@@ 1
pital 1
plate@@ 1
plying 1
ppen 1
ppies 1
practi@@ 1
profess@@ 1
progre@@ 1
protest@@ 1
ptions 1
publ@@ 1
pull@@ 1
raf@@ 1
rayed 1
refl@@ 1
remet@@ 1
renn@@ 1
resque 1
rick@@ 1
riture 1
rollersk@@ 1
rote 1
rum 1
rure 1
réuni@@ 1
sack@@ 1
saire 1
salo@@ 1
sans-@@ 1
sauve@@ 1
schwin@@ 1
scr@@ 1
scriptions 1
secou@@ 1
seil 1
sembl@@ 1
sen 1
sents 1
shment 1
shoot@@ 1
sidel@@ 1
signal@@ 1
skat@@ 1
sle 1
sly 1
smar@@ 1
smil@@ 1
social@@ 1
sole@@ 1
souri@@ 1
souti@@ 1
spec@@ 1
spit@@ 1
spé@@ 1
squ&apos; 1
squat@@ 1
ssell 1
stab@@ 1
stam@@ 1
stel@@ 1
stens 1
stil@@ 1
stoo@@ 1
stur@@ 1
stures 1
suiv@@ 1
suppli@@ 1
surg@@ 1
surgi@@ 1
swimm@@ 1
sément 1
tage@@ 1
teau 1
teen@@ 1
teil@@ 1
tennis@@ 1
tens 1
tently 1
ters@@ 1
tig@@ 1
tiges 1
togra@@ 1
toire 1
traf@@ 1
trainer 1
tram@@ 1
travail@@ 1
tread@@ 1
tritus 1
tropi@@ 1
trouvant 1
tter@@ 1
tty 1
tue 1
tux@@ 1
tuy@@ 1
tâ@@ 1
tère 1
ump@@ 1
unicyc@@ 1
unis 1
urne 1
usement 1
usk 1
utili@@ 1
versu@@ 1
veux 1
vitrée 1
volle@@ 1
végét@@ 1
vél@@ 1
vététi@@ 1
with@@ 1
worl@@ 1
xim@@ 1
yar@@ 1
yc@@ 1
yh@@ 1
yho@@ 1
yon 1
yway 1
za 1
zement 1
zer@@ 1
} 1
° 1
âteaux 1
écha@@ 1
éco@@ 1
électron@@ 1
épon@@ 1
éro 1
éto@@ 1
êt 1
ïs 1
û 1
́ 1
